[{"dim": 64, "use_bias": false, "featurizer": {"n_features": 128, "ngram_min": 2, "ngram_max": 4, "lowercase": true, "boundary": "\u0002", "seed": 0}, "n_features": 128, "weights_b64": "bL+APH9Gh7y98qM939VWPKEhib39Ijk9eekmPuZz8j3+J7S9VfkhvuqOn71uRak7Ts2UvuwK4LwDeh++4HW7vY9Ui70Y8iG9PcFSPRRxBT6XnoO8RuguPjNKqr0h+TM90knnPYWJQDz4Vb69MvbrvQpbar3VeuE8KzsBvh8y1rziC6O823SKPZrP2zxp8zU9UGGnvXC5hLyessg9wCg/Pg8pIb5ByEE+pUUsPgYEyD26Zgc9frogvWygOj6/6Xo++ZtmPlJVKD6R+jY9L6oavvrzEbq+Dqg9B+kkvnBNSj0YF1w92y+yPS2RF75XZam9cXRfvRK8Fb6bo14+A+h9vbVuKD2fYwS9Pa9KPpcBKT5mI6I9TgaNvlUc1TsPBq890IEAPigvnr2rN2k+4gMpvudZqb1wX+89fu3IOzMngD4tC8E8AhmivQFQQb2tqgu+BosjvqZioT1Ix5Q9GrQlPtgtwb2sNFg+eyQTvTaGST4bll29oki8vb3H/zyoBgQ+st+kPDjllb0WrSu+BGUzvtOvgD3VXf091zyovMqECb6xf9898+MjvqGLtr0H+549UAKQvjzSRT1q5pS9Cc5fPGcJG7wT9848QbWxPYUkwr294jU+SOG5Pd3+1z1DGhU+Yp/JPYoV2D3T0Bo8h6A2vkNJirzp/sS9Zxw2vu1TBD11jJG9otADvg+BBb73bQk92qM3PUlGKT5a+uO6AVsFPmp9Mz6hOBM+JGGXvoJFHT6s4i09j/hYPYURPj2/+EM9Q4ojPXzDN73JaHO+rw5fvF/Bzb3LQgo+NNkTvSH1KjzHf9m9J7iCvSv1vLrGID6+ZvMZPWk8WbyrxRe+pnyZvmJXgz3vXBi9oq6HvYXS8bxJgmg+GvzLu3FlMTxnWD6+AtxSPn7g6j1SkQg+e0TDO+Op6j2+7D099vmcPXnYm7xcqDy+gLEDPsKsd771sfW8WG7RvHF8Bb6j9Zw9OyPNvDWtX71ZFIU9KwJ0vRnKMT7r8TM9xttyva3deL51ZCe+RR0LPjVGz7vF9RC9ElZSPtotJL6r7ZW9A/dxvTMalj1x3am99AidvYl1Tb6ktro9Jl/OPafnc72WQqc8bnUlvn6Rcb2yYDA+//yKPP/ckz53hcm9hY2UPa4yyLxw2ZA9RU1suq6qj70iHN698jnEPhZnHrz4EIG+sAqmvQOUrT2NAIC9GiMuPpZOAD6p/pu8SsZxvVKdAL4CMbO99I88vqgpGj4VnEs+IskgvmNBF76ZXmK+J7/2vTnOxr4yNhK+UwEmPv37ML0Ixto9J1p6vYxdYT7N/8s8zpVDvepaoz4tISa9DFEcvn/Bzjx9EZ+7U30IPjPw673uAc49uU3aPY7tqr1wKac8KazUvbghlj5+QrS9YPlnvWFtCL7PNjG9r4tAutSNxD3aSJy9hzu+vIZPNb6i0NO9J1+wPnVHBT5oC8i91S8rvsy/+b0IsTG7uj6OO2uOvr15riS+gBA2PlFDZz1hxz+9A/XhvE+Ph70r6Lu+HOBsPJkHCb72VwC+PeijvSB4uz300xW+iZY3vljNoz1SHsE9rnz1vUv5jz3ZUBW9+EIaPSVnIb6SONU9ZAQaPjsXoz1e74499WzxvkNxBT2yclC7GZOWvI9tob1ixuI7DQFTPT4PB73SOG29k2gdPqt8Db4g3AM+VA61PPrmzb2CeBS9s4TrvQfRrD0uIDI9MoqOvX0VDb6Ieho9ORf1PQgjabxNMlY9oYZAvblhCjwJIxW9sYwWPTpAQb6s6aQ9bHPrvHqbNz0hPS69YgYkPb1JCb42Nhg+wA1avscFBb5yUvE8aj47PpJmDj232/28W2k2vgjew7wd1SK7jmRYPplDnz1RuUO+wLaBPrw+Sr1GJOG9/cY8PrLMy7syHDy9bwngPKJK2D1IS/49ogYwvj7Ofz6FZfI9pCZCvbGT0b0zEfi91q18PGXkpb3IzsO9Xq7PPZKoOj0+BUq9p/e7PUMGLz51GAy+VnGavapP8T19DLg9vyPoPDjKFD6GSgu+Y1Q9vm3T3b1m+Ho8WMzLvah0eb2cmfm9ctSevd6cAL6IJDw9+33LPQP9db18PdS8jb6UvRQAiD0DYzY8VQ1MPm04DL7tmTk911JjPZ2LOL1+YpU9gyE4vniahz4dyCu+fXjrPfOAD74jUBM+GgFFvZ05ojz7fto72+QMPt6hJL1X5r2+NpPCvRUfvDwMhWG9+xLFPTz2AT5+UZe8s6w+vlMsMT5/oQo+lS8ZvTPuhj7OnzK9JI0Rvkmdn7x19gk+8/zvvb7BeT6+guW9BVX0PeNhiz0iwZ286E4KPmj5P77qxC0+xmwCvAndir3fyb89xaoHPlARxT2+738+O1UKPvJJJD6GNIq9IylaPKAfkD0rWBG7728aPWcqWj1fINg9UhhQvOIYM71/DNS9kkjkveISFj6aGS28MHXJPQUQJr7kFXi+n0gGvqzEEj7Dtgg+9wAqPQZbzb0h8YW8EHQYvVmgML1zY6C+EKHbveerwrxOGkI+1JmkPE9QMz70k0m9ZmABvSCQ+b6iOW09dg6MPdvCYT7EOHm95dNAPHudtL2Xjxa+Po62vaajML3+fi0+ifCQOSVhyr1sSJE8B8vePIsdrb17VRI+a7VxvnGr2rzFQao9wlErvkD2OD2FfSU+mkdoPSlXWL79arq9HrwdPma/GD1jh6G6C+VhPaqWuD36XbW9Uq8UvfVXkjzQQIu9hqeIvKkgJj4Lw/e94px2PluOcD78UVu+P2iQvEV1Lz1zyMK9dLe9vRod87zGOr09xuaCvRrRaT55dxQ9/hJSvFeBOT73U6A9KBM9PTuLKb2uMGg+itPPPRBL0Lyp4Um+gfM+PRNmEr4epFu+8uwOvfscED1YKCQ+h50QPUxXzj256Ry+Z5U4u4FifjwqvNw9OLFtPB7YzT00E4G93kU3PV5pVD2n+B++ZsCzPI8GJL0nuXO+JFr1PYpFOb08Ntq9qS9BvWGEjTwuA0E+ZeqpvGXfcT1z0S8+xZaIPbbGCD4a+XO9fWPFPT547btPhgk+pHQAvhmRx73MZSI+PcrIvLHJN71K3h486IKwvQ59Kj6Q5B++XTaavMyjMT1Y6FW8t2LNvcFO3r1MzVk9yeYDvilwpT1LF0O+XxOOvaC1lDuERiC+L+qmPbbeF7sQngS+7mpCvjxlSL74CNE7AhMUvmC0Lr5+xuy8ksKRPsUZDj2mTsM919LZPIVxyD1U6iu+EWxcvcfPBT1JxhK735nEvNt2qr3KSgS91DHGvVD/mr6n5Ri+yIhzPVVORz5lI2g+xyVGPMq05D0+ceg95jexvRhWWb5nB307zY9hvtDNI72QrZs91sQ1vipIhDvquB4+Khg5PeC2hT0kIOg9vNFdPqcOmzxJYB0+JmsDvLjRi703MCE9jRabvZm4kr3klJu9O+iSvhwQWDxbxSG+6q9bvJSYOT5HYIW9HcGKvZWULj6y2os9rv35PbzoNb1igr89v6ivvXMOrb13o5g9/C6ZveFhxD1cEZk+2dNXvneQwL3zYA8+X4+UvJieFD7JSQG+8qUpPW8rmrxYvY88CogpPSspHL5WfQm+bRozPhwgFj0bzFk8soe0u72MNj289RO+QcD/vSD6Jj7k55o8Ua3ZPcwMm72KODA+VcgwPdpldj2HeYw9zAjMvfHPbr4ikwm++bRQPtB8Jj6tnzG9UnUavYCvBD6jc6y8Jk4mvlH9IT7AUHQ9tguhvnRaIL1IHpM8/GV2PYXNmzz5v6K9FBNtvBHwFj3VNwm9xWk+vUlEID7iVPK94OwyvVAAgr4CfYo9JAnUPaJpjD2W7Oo9UKRhPS1eLz0xqXI9p9wIvSEbGD4KeDK9WS47vmuL2T3U42w+d8z1vfsjULwhea+9z9tCvfzLvDuU8x6+nygOvdKkO75ed5G9IdEXvk2PB74IJly+0BMcPrJRgj12b3W+scmYvd2hq7234bC9ezM5vmwfwT2orkq9N7FvPXfZhj2YDjA+vE1ovoSKXj6KaCI+dLSSPcaMmD7p5dE8cUzSPbMIvb2gMhE+ktqrPLUDZ73ve4c+tA4cvRovkTrCA8q8pnPBvXgBiD1pCL09UXA1PbcTl74MBgE+cVIzvXywG76fcJo95haQPXCDBb5jPJ4+C9UavgjTXb7kuxO+xdw1PskTtLw3fj69GJn+u7C7mL0atbC9syakvZM8tT1MngI+Rg0Hvi349Dzzx8k92XYKvjSogL1J3wS+bEAlvnudUDwsc7y9rZGhPT4GcbvlQ1M9G6YVvTCPor3Wsjm8lLYjuvKytL24alo91yC/PW/goTyrU1s++OChvc9FhT2wRVG9t0LwPI931L1dvA4+0z60PHibGD5rDyK+B658vTF/5L1YLYi93k6xvSredrziSQ27v9+nu9A2jr1j7L88VijgPYj75r2d8ug4erIXvC7Mbz1KyAK8eVMAu3S4/b1AzDE7nwDsvTIFhD1zZFO8lUKjOw0l5L0Pw809fDuxPdWM3D1+jY4+kB7XuxsJGj5vmX28z8VJPYINOz2SeAc9eoOoPY2dG72cqKc7DgqJPa25Xz6wpNe9Wy9nvg7ad71mLDg8Mi2zPK7cPDyrZRc+Zt75PSXNybt7aHC9EygxvX9tNr2MA+e8nUxJvogNbL3giVm93GnBvJwzAr2pCKw9cS2IvUKNYL2AvIo9YPbwvE+m3TyWWas9YwxYPUsVAD36J8m8nZCuPV3DszwIPoG9uW2avKrrG76IKPa9IQNxvvwPrr0n8yo+DXaOvUacyT3zFuK5K1ezvb5MKz5xC5U9ADtgvqtMBT7Fkgm+Ey+2vHsJqz1ahhm9jzkPPi/iwj0P10m+5OJxvfhrED0dM5O9l3fdvLS+zD0pMSI9sK3rvQPMsjy0vZy9bIsbvqylEL7W6xI9t05mu1D9MTr6thK+B1i8vOjBBL4lKO29/RapvPASMb4ZVas9FymfPuLqaj3afQW+1NgKvZcYR77vVkG9U9+BPezhlj0mEAS+nikZPS4FFD7XpmA+S2ezvTY83b0t49471GW7vtjxh707vQq93y5rvVy8Sr7Acfu808/GvWnqwT0qIeu9io8QveeJ7rxcTJE9GvCivmRmLr0jdsI9My85vaxyQ77gNyc9OmIsPZZ9Cr0wdBS+45y9vbGkIL3sIuC9Z8h1vvvvxL015/y7sM6Bve/FGrzgVCs8+YXlPXQLjT7cVbs9CsEzvmMLqr5idUG8GjQSPES4FL7MRws9J1bEvboqTj1Rqia9N4BLPQUhX767fmC9jSmYvExiNr528HA+IHCKvZjqMT5TEqq9j33rvBmKFz4xjxs95anEPL0pCD1D3i6+jnNHvZ/Z9L3OJso8dkOLvVZ3tLuQSx68HfmUuwBTjrtAAqe9kOkGvkETqr0rKAk+I5I/PbVClj3KojA+mPcWvj6Mgj0HnAm+pC0rvUnudz3eok4+9jvIvYokQryR/xM+CLI+vt1mOT2i1h29w7bhvWQmljwQTZg9X3/pvQWOQj3nh7E8vfMevjzWRj7ugQs+KSTcvXEtlr3aUcU9f6t9veZ7a77FQQY+9d+POm8ZdD7uBTc9iZPDPNH3tz7+/a+8M6rzveCy6jxrYBE+qCIVvhCE6L0vSWY9T6HMvuXcC77YpMs9ljSWvZkwUL74eHY+a4w0vkn7hb2q1j69nEcqPMkvPb0F0SW8cH/rO2mDMbxbBj88UkCYvjvTYT09xTO+UqqKvgLQMD7EiyS+my+4PJfGxb32r629maF3PTwsBr4qzz49IOpCPaEMFT4kJCy9aPYFPrk/XD5oGEs+JAmWPRj5ZT14XbY++duOPghBxL2kcew9ABqaPfYAFDzm/Zw8+L55Pbr27z01BeA8cfktPacxMj46rCI9mIaLPbh//T2+DlE+rQ8dPlEiQT2TzdQ8C58cvjmJFT37wQS+uRMDvsGHpj1p+028ccVxPaiAoL0OwRk+BDmTPHsHGD6ZZqw9CzepPIsBdb0XDoE7f/jTPbKZsj3rCBm+jUkDPq8K27wgtdA9l46yvXxKoz1y7cu9HnaEPF2XGL2RNhK93QuRvddDnbwezV6+1mjgPRgx9j1Cs2K9zZswvr2Opb3alvI9ISKgPfHHGb3Ns+U9Pk8FvrzVnL25/3I9NW5EvH/Xlr2zxqC+1dSrPd6+JT0UGF++8q6ZPflV67pvww49L/jxPTlpvb0lrLY9ERGvPbLywj0AZ1E+2aKoPT/Cj712MWY+a7wNvhvqbL195/a9QXRSvCmGCj7aHSY+KFJtPQ4BnL0Uuo29EGuavV7t8z32Eui9mFHdPVyBhbsoLrA8/X9BPvtec72Gs1Q+8mg0vrcj0727CEq+GS2/vcM3lT3Q27w9pxEdPUfACD2ULxa+oNUpvnmXGz3whCw+3286vSlgIr6JQkS+MT+uvX4uSj6sudS8VNsEvkgGnL01k3e9e/4HPdf2qL0U0+O9hofAvI/1bz0ukLc9q++MPQo9ar1J+Fi+jmvMvR5zET2QtCq+T1cBPaoIl72yCJW9AUwPPnL73zyOZC8+4nLwvSG8ED5+ueg9IK6/vkbHNLycZ0U+xS7HPdn0Yb2bYO68Tcomvlc+0zyqhmW+kvUBvsdADz4GeCi7+xI6ve7nWLwxe68+CoEEPm+Qxr0OWFU+H9o1vBdevT1qLZa9VBfwvSZKzT3D1cS9dwTIvXjY5T2uvhS+Dao1vq+Iiz1n3Xq+GHHAvfg1O70FMyy+pwYPvqZ2qj1pvBU9JhryvV6Mhz23d0I+RCYkvlvn+jvpAn0++XScPQI60D3S9My8WkfMvQFaEj6FWqc9+gnTu3xAbr12tV++4qWfPBYUsb3OBIe8C8WrPbPr0T1zELg9+VKQPpsiFT77/r69PHzRvWwAlT6+z6m9Q8e0u4tXXz54j1s+1sXfu+2/9zxDS1G+ionovT8DO73xeDm6Q4olvfTymzw5VYw+Fr5tPd4OHj1WYm85jAiwvCHRHT5Pw/2965eAvG5CDL4PcTI8qNBzPFGm6z36TBk+lr6pPTGmTz4TVEs+snYhPVInPz0U2He+6/YjPQ3XJrqcIFi+od5cvb0Z9T0okB6+bH8lPuUYcz2R3um8P76RvBp21D3uNze+2JuCPkM80L2a6cO9IkIcPt9Ayj1vpik+teIFPvi2QD2OYCO+ExhyvbAzyzx2wgy7y2CDvhOvBT4Ull0+eWc7PjlJAr4KN189ixiIvoRSWD7jTXi+NC5SPWnPFD4ISiU+5xwwPbN7Nr5BNU+8CmEJvZKZPD3s3Pw9g3upPZHIhz6hOqk9FxNHvSyjUD7TCSG9alAQPdkduTxNxJK+WLsNPXkxFD3svNa8iK2QvFVnJL6G4ig83V9APieGtbwJqoW9H5SbvfgXgT6eeC2+oU7YPd8rZDzv33U+jNcnPhXgNLzYTkW+cP42Pi2hOj5ubQ2+n8e+PQn/zL1otMa9+/1NvuHS7j1Y0Qo9Ei99PbPqOT78Kqs96KWVPWrQvz3kQwi+UCuNu8dmGr61YOa9Sgo8vO/rBz7HuYM+nOcKvod9sTx+ORG86viGPdAYlT1Ejzk94pj3veYSSj2Gb+Q9lW2DvYI0fT4VjfC8qUSivf6+Fz3F4gO9hf8uvsJGVrv6P0w+fSmAPqEpkb0UwOc9zbWHPJdZET04OSI+XCHaPSwGnjwvwu29m94Pvu0bA7ylsCU94M+APSUvyD0Xxvo9AsyZvt5H5z3FEga+zZkOPqVcLD1ebKE9HHqKva23ED3SAG++CzEMPrJjKb1+s6W+sd4HPoWgVj4GSuC9FDobPvnvv72tDpG+rz03vVv7Jj2hwYg8KStUPL3EFz3FwN08JTndvCH0mb0MFwi9bQ40va0YG72ULQ2+d+eKvTRmKDwobB49nCEDvFgRvLy10Yg9BYHQPbcZrj0F/V++2yppvceltD0U8YM9EQiuPa7yID1jgdq9/3wcPgIHLr6fWvw9JCUGu+9/PL5U1Uq9ihQaPn6hlr0F9Rq+UtwTvVxt0b2pEyC+8wRgPQVVzD1FPo29JwyGPWgoRr3sNky8Z7p8POojPz5h74E94MX/vWMNhD0uf+K8y8ZuvZr61r3DH1e7bk32u9nqTb0eETK+n4Ravl4OgzxPe7Y8YbiLPnDztrwGvgI+cPwYPiIh+rvYSR08ehRcvWs4Yz5OFEG+AGSiu/EqMT5dh1y89iiSvcl47jyw6IY980ORPY0zED35BcA9dxnyPVeuDb4c/kG9F6TePWcsej0DO/A8lCesPVnA8z35qNu9hAwdvtarE74J6W0+pvcGvps38LwG7r28yPkDPk6BXr6016C7FHEbPgm1Dj5XkVE9z5kFvcX7YD5dAla+2iH7PfIXgj0uTpc9GBgIPb8a0jwfSO49+ZYTvgSPH74kWqY8EpzVO4iWpzxPk0s+nk2UvW1WwD1U1kQ9wnWXPtp6M74fx4u9YuBpvYQJKT4v5tG9ejdUPtCOTD7KmN09we9fPdkwR75mhbo8QCA3viuqOb2j+c88ZCQevf9n8z3ARoS88TdGvvWvB75uDyO+KgMivdywHz6TeIE9L9QtPWGHJL5hoJc+Johnu7Kumj5VD969Y16Rvdtgpj5nmQm+nGBWPT4pLb3LO9C9IU+KPl6HAL5NvuU9HVoNPraCAb5H2HK+AuxjvoGxzL01AuQ8Er8rPW2Vwbz7qle8K1v5PaylxD0T7EE9j/GdvQIPxz0Ij7k8IHK/vXOvk71URB0+ejVsPiych70S/4S+BmSWPTw8570Ahbs9eX1Avb6xjj5y4GU8OSHnPeGGG75Fb7S+PpSKPAcgBj2PZbg9lsaNvfdaJb4I3Uy+pZqNPaDVtT2zMeC9Ry2HvVxqur0plnK+9uTLPIOU2D3JteS8kxM2vuQUy7xnpS4+YlCIPhrHCT0K+Mm9Vid+vjzhRb6tCja8Di/nPE9mAz37pAa9TYhFvk/JSb4z3JY84RbTvdoEJz6nvTq+0/JXPn6fqr2oi+Q8kITkPMIhML3n3IC+h/x2vfrfQj4J8SO+PMprvmAg4LxmJFO913slvpuowL3/T3a9SGRTvS6upjzi57Q9ry5GPbH5Lj3tDlc+5TIMPvlrur5Z8Dm9ZsxJvj9rsL0ZZcU9vAPOvNZVW72Gkig+zHtAvr0hQLx2e4w9JbZFOzTmFL6c3zi7HrnOPXjpNj1zqCI91GkdPbFvijyi4R6+pEIevcKWXD0eVMe+atbBPebCLD1nxgq+zRC/vca70Ly/rVM9bIA/vVxgFT4zhVM9vlzJvcI+cb2iCuk8uHa6PX8Vrj0830e8OxWZPLOgTbvvbdI9hXr8veZTmj2LG22+y+1mPVQuAz3SKUS4rHyIvmqKSD5G/uU9BnlQO7Dbaj1Ze/C9VSSDPfCwRz6Cyxa+I1asPie1X70B0dM9/3vTvT/jRz1yECO+1bOovSoQ6rzt46e9azn3vAzY+T2HdyO+cQ4ZvjXBwDu8bpC92XoAvpszhzxZepC9kRosPXXbortIC868ZMELvIv5Aj6TNCg+T2+jvPrVA74BckG+8vKOvrmFFr6gMdq9hC/Xu3+1cL4fADc+mCIIPr5hHz7GTIO9d9v5PHiG8r0pYEY+aEQbvvN8g71+MjY+FVmfPhjbO7yCFlS92nSgvhfwWj4Oyh09+SRxvj8R3z1TJ5093nM1vV3Ojr1+6bo9Xo/vPEJCeT3I/Rw+c7oYPv2wwj041ZU9j5sjvl7HDr60itE9Fa+lPY+nhD3+INc9KtONvdKekD1OJ/29UYL/O07o7T39Rq294/h5PoQpET41oS8+YjnYvBjJMb7I1rK9DDqNPXzZDr1jq7g92xCaPBr6lr28KO89+AUtPiFuu71hDIM9OVqgPHXPDz1LNlW83VcgvkZrND5rlAW+XuHevVkBqD0ZMbg8FcnLvQZVqL2YgaK8KkZfvcCCpT0iBRW+KwU6PZHoQz7kMc48MmfjvQ0Zub2G2bI7f8yfvXIHHj6xkWu+iclRPm+Zgb7s+Ke71Z4Kvof30T0SJ8a9XggRvsEXLr28b1K9Ea93vle2aD3HIJm+OZIWPkP+KL1B+PM9Lr6ZvREJy7332KY9L4qVvfUXRr5cVTK80UMwvtB407oXgTA+b3H2Pcm1cjkssqm8sjEivS02o70+zDU9oayhvBJuQ72zQwo9Fi2BvvFtej50UKE91mYyvoGdazzdhRC+fQ2KveQl5b0Zwgs+mNp1vg1zNb1/FFO+94Unu6CqIr1mDzS+OEk4PuYeSD5EbpC9Fp2FPcdgmLyFSPk83hxEPkOLCb2+ZWU+R44TvTWZP7wn1XE+RekMPVULgr66MuY8xBMkvizQVL4LUfG9AvQmPdWCDr5wXDO+G3BCvSApTz3ZRbK9TzknvmUNi741tca9mSTYPX5EAD4VMco9jH+zvLB0hDwbRCI+pWHevR1oOj2IeW++D6uuPR3vZr276xO+ctjFPfI8Dr4sBt69d7ZEPibkBb7y76e9xOmuvbfoyD0o/2q+9wwgPsEx+bxPPCK96ozlvTHxlLzbNTw++vXZPPS67r2J2DG969GIPem+Ljw3vgO9SsWaPVvgOD2Z8gm++xt1vv8fgD27wG0+dBvSvWBlkLyKUi0+U6xePmWaBTz/9h8+jCnAPfFJjr02NIG+P9DovaALPT2SqFY9GZOAvTmS273N1ky+LRVXvh0aerzikEm+HX/3unlIzL09Mlq9BgaIPu6uxTsr5i+9836xvM2gPL4+aSs+fwrZPdUwiL2Fyuo8heyrvWDlSj2I5iu+7PEIPZwpQD77fmQ9GRCXvSAk8z1lq3k+fh67PaAiRzwuXs29FAxfPdYMdj6RFIG+pC/6PcFWlzystUE+ZgGDvG56ir5s534+qWYUvsnhzD3JoYK8PSWiu0XtjDzhvYu91w+/PJWHHT2yNc09pAWAPJ4rIz3zASo+5+rmvZqnDzxh5XQ9LokEPls3Arxud0s84pwwvbbAHj6qcCS9Vm+vPeSjULwOrnw7LI0cvu1K6DtZ3HK7n+Y9voCNvb1UX2i9mKxDvgbMG76nGjw+d9YDvkBP271NqDK+2hodPrEP6z1K7SI9ZIYsPODWe70UnhG9aJWsvTeEqD2nM7E9BKLpPRkhgz4BCbU9dHCiPS15AD6UYEW+yhIbOrKZQb5m40k+wmt8vZ/1Yj793wc+Wl+NvTpzVL7N3w++0fQEPsaBJL3Amj2+1BrmvJeqWD55+00+WThyvUfBHT3o3Jw9SVU9vpxtiL1Ykk+97t9OPRyjgr2U3TK+b/4lPZhapL20Kx2+zdkcvm5U5Lw9vDk+LryyvCpcCT6fwI++frLWvdAFIb5/kgy9fSvFPUDli72BSx++DZ/yPR4bw728jAs9Qz2qvWdihD1LYES9d4/LPSX6nj1HKY4+ejIkvFCv+b1+nxS+xumYvTIpQD08vba9h21CPjUgzTzqHfq9NQhtvedso72xi7Y8cT8DvmgXJD4ubja9cvnyvI5T7D3cm7+9wbkzuUNnZT5dgVI99m8WPRfqc72Ehv69+thfPlbzo7xh8XI+uhOvvUuiID6PPtK8a2RVPRy9Gz7TEGI9sHXNPRQOSL4S4Wu9L9yCPryi6rxsIyM9AQGnvL0fn71SPT++mCQSvnZeVz6L6iG84ioYvtVw570Fmd89a3jyvQ8XoL3a7Q6+LishvnAUUz5aRZC8jpwkvZr4mb1QY7Y9XMn7O8utFT2QJow83vI2vQQ3dr1GEV6+W8p7vbx3ij7cpR6+tkEPOjTkKz3R1Rg+NCGqPtYoS73XieC9ubMHPgEf2jx/aIA+sa+5PUo2q723Wsm8jZhYPSUtgD2xKhG+Z0x2vo9ITb40/p09fuqcvBbcar7eA429HvB3vla/Br01iN292daOvUDCLLxaA7s8VfDzO7JVJT5zqpk+VhraPf4uwrz2gMA9Iy66vRFq073jCd+9I7AVPVyHHj4+WI4+u4EpPqSbsj0uNrC9vfkcPCYgiz3TX3q8QHJuPkvo0b280ba9QpVCPWtvgD7xB2i+F5bYvQLaJD68z629NsiDPh1P0r36QQk+ZZY0vE9Laz3ilwS+NZhNvmuKxj20gIe9eC/rvTx6Db67wwW+iDYtPloy7L2A34q9Ubx7PoJYXb0TWTm6vTw8PTGNF70RKbC9f7IjPtrAIz1+JqG9c1ExvpkuFL5OJAO+pPuJvp1DFj4rGlE8JmKJPaydNb4JYHi9ptz1vNHOGjygPNO8rlkfvrfBCz4s1bU9NlAZPD0gBD4ioxo+hmsyPiHwpjzRLCG96al1vdgn5D00k7O92dzpvfXsjT2a44U96/SiPVtm2b06+hk961DqPXisdb1uSQm9b40Yvb91Qj5lm+Y9y5crvvynQr6obaY9sjfavKtWiD07CQg9mjoBPm4XUL7AQIy9S4IAPcgY8DxDufK94/OGvcv5lb2BAbc7LlizPTUKDb00upy8AQeGvj3SB75zLm0+intbvmSkLj5GhRi9Mkp7vmmVOj5fXCQ+4NSAvd0F3j3PNza9EpjQO41CqjwIjuy8ST2GPeWART3J24W9aowXPTlFhb3CB4k8sWV+vVVARzz34Uw+bmWnvb9HO771DEw+RrsVPaeOpr07pP+8l+vpvYkW8D1jnbY9HuqgPQJ94TziM4O+6O4XvuucET2v6qm+xVAivHA9A76JH6I931HJvKGKBz4T4Sw9G/VoPMgs+b2DsaA9K0aYPtjvWr67CQO+/QBVPsAEgz0WhBe9vS/IPWg8Kj07Eqe9HRWrvVLz2j2jxS89gPEJPi1epz3MLp29PRZDPmhU7L1LFmi9aWTIvd9ZM75MYp895cMGvlwpr72RWfE9nH7dPagVn73WbSe+8IJVvN+GTL6VVQG+nYpGveTsobyRI469S9WUvLLmMD5Xi6A9fIowPi9i5T2ajO08Hl8bvucEK751oii7BDVRvTc+773OxFE9oK4cPnRxC7yOyi885AWMveUcsL2qoHw+FNIgvhQYpbyO72S93Q5hvEDuBT46Z/49hXmPvLXODz5vPMS9Txs2PQ3HYz7O3JO9TArSPHjRPz6crNe957wDPIQtIb3+9w6+UPtOPdgY2L3D71M+qUEpO3Ex17wwaac7MYJSPG8BzLx0aOo72iaTvYm2f71T7IY997mIvu6qzL0hK4w6fkwvPQ71R71Rfos8Ce0yvd0rbr6zwvA9xTYJPVoV9b37yzw+R3CtPQ8hoL37ow0+uv2JPSMx1D0oD5q9iH+OvQON0r3Pgoq9pAmUvtm4Cj7tGBe+rNiRPQ0sJr5pOG88+54Yvj/ZIrvZwky+I4iXvTfeqD2dB9s8qCavPHXC2738k4y+Vp3kvavNgr0IWD0+UsyRPVsHIj0A9ZS9wbC6vcn/oz2AfT69bn0svUJ8dT6EWPu9oC4Qvbmu/7zEvaa9N640vmPcIj4KyzS+a1novTI1Az27Mh+++ImfvG1gA72bbvK8p22PvCFHNL46rIy962okPhr8FD7mrZS93t0KPgGb8L0xli6+1xqBvrp2Dr4WdWs9OK4mvW2wVD5O5dY9ols1vaij5Lz5F928aMX/PYi0RL1cmu26FEa8vZQ9Jj6UvjK9dpSlvfmTQr7+W/c90HmXvbYnELwTJlK9pv6+vCPEfb4u2si9yLMKvtRqiz4aZiw+mUtgPSMnnz5NfyM+5h8svj6CJL6ZJQk9OhQOvIKN2DywLtO9ezlsPiXFM721Yw8+WM06Pv3Rlb23jZM9t+ZLPsmnOj7tc8A9DyFhPVh8ITz0ZiI+dkOVPWyMfjynBnK93iMtvjGwsbyKpm4+AJx3vS4npL0fcPa8RvrZvBcmj704q6Q9X84mPVBoFz6V/Jk9wvW+PKOYhr794Mk8gzOnvf3yCT6rZxY87DrDvdERi71Uyhm+DCyMvStgIT2x4xY+SBWFPTpIzz17H+Q9YLIlva8AOj66BC2+7q98POaXhr23k3u+8FlUPlq0f75CebA9w4ZlPpb/z7z5R2y8UwtzvmjN/7yxtzk+n6mFvTZy+b0/NZS+HpEkPu7VUj1Pohq98XkFPrzah716BCu99e+HPqtx5b1yphQ9V+PkPLGPRzwJlE06qEAnvgrNjLxPSvi8oj6rveBi1b1vOAC+mjbPvQd1UT0kU5U7WOdTPgZ0mj3CVZi9fAOKvYYfsbz4NTO9pxfyOSJ5eD5QoJu8OCqHPI6HGL7pEUC+ouWKvH6mVb2Ni848ybEtPs2tgr0vQa+92376PV8RX73SlOs7gG5YvCGJcD4CcVe+4SbSvViapj0HfhQ+hLgDvkPkFj6WK3G9ROy5veBPob1BKTU9UB54PY3x370v6NI8g6FDve6sGL51jFg+Vq/3vcEAUjxAGhW+pt9cvREbOjzcRKU8dQoDvgSAdbwhLDM9ifk9PrZTzD0zVAk+4A2iPQbIqr3EHyi9YRLoPSn7r71liA++90+zuxK0aL7BTMi9udwRvroyU73S+ic+h22UPi7Slz3N6/W9aSm7PbZKVz3NNJq9RY7hPaqVd718VpS9w/3qO3d6rz0ulDy9bt81PYYqar6WpRU9IvZ0vRnehb2KpqG+d385vg5uX74F/5o9swPsvYPwCz1Irqg95eGLvcODA77/8Ro+Lh0GPZPIHb78+HU9CPCpvU4Gbj05gNM95SLRvUu4ez2Zu8C+lhCMPSfjer6xoqE+x1Q1PXMRnb1UDxE+ZdHIvRoSdDxH3xG9EFsaOVI+j73cU2A9zGa9vS5xZjzz5KA9+HKYvYDr1T27sHg91E4XvTWVg70t3ce7u9tnvWqKg71H4Ie87lTZvAeuWjyUuzU+3WnpPcN82T3TboQ94pGavcLDB75sBum8C9QXPkl/GT5zoDq+OBdjvtJhVj7YZjY+W2agvUskHrwbwcw7KjUNPgnYeb2Pf5c9qCwMPVjsGT0E6gY+ty2WPFsCJL7+A+c9V155vf3W5T00jQc991/6vfKVAj2hkaK94FkKPXL/Tr1WSQE+vTO2vVo6PL1zK7O96TzLvRodCr1EWds8gYuPPekN0Tt1AGm9DZBHvk8v8T1X84G90yxNPXFVCL4G0kE+xgmxPb9+472ZNTI9xN4rPhvctLw+xFm+b+NpPeh3bD4Fcky+hS0DPrBx7rwEtjq8JlbEPH7WyTqp39w9hRAVvqM1MLyGgu+9B76Cvag+vj5mkNi9U9BlPUzWHD32wHW+BNgSvpp5aL71i5y8hkYovlyy5b0cf0S+elasPSLMmD3uQD4+YBi0vF7zvD2+lhA+/eOFPk/xH76Ncs+9/B/7vQl9Mb6i5bY982a6PZDrMr4G+Qq+LZ0gPbjAe71Aguo8RCKtvJ6uBz7/NxA+gDhqvr+aLT4TsHa9+icRvhVYmj2Ezfq9Nu0gvhegML2uOy4+YbFovhVKBb6ZhFi+mTQavlogmLzX7ii+zekePQa4WDxq4rg9ucN1PpwM/b1WPXa9tbOavVKCZ72EhU499o6ZPaGGgb1FdSo+DRQLvZJWbbxL0eO9bgCrPfXmvj28uLc56sqJviy0+bzP4Jc9baZVvVsZRrziNoM91+Fovt1xyz22ZHK+WqpDPI8wkz2sf4C9MS5vPTbbfD2YH4i9JkhZvefLzT0T6hw9p7mZPR5ZUj2Jv5G9x0oHvrK8Ar5qACu+Z5CAvtkLl73Am+a9GcEDPCrD6bxlDT89NRsQPkke+73fHwC91e9CvTOi372CtBi+MlL0O1HxBj1u9w29mfaPPX2lHz0ufgE+IDSxO1TenDw7dg8+vfxcvYKRbD3tzv490RTnPbPz1D0bBaA9oHAQvUAE/D0TvIC9Dx9XvU5t2bxZxIo9UgROPvAfKT48HyM+oRuxPURVnzw6FN699kmVvc03jzzhhFo+ECCUPSPsPj2R45Q9W4wrvnsBqb0JOYQ9CwYDPq3Tl71CGY89BfJwvhkjgT3BvTY+u9fMvGxxnb2COqs+6VjLO4cYMT4WQqa9DxoYvo7FQ75M//49FCxUvmxtf74fBJ29oeZGvfb8DL32ux6++qfOvXwI6jt4Yne+fLJIPOsemz1Pxy8+vlBpPZMmFD7vOho9IEw/Pq++gjwsl4U+X4+ZPRaqjr01Kb08AvBevsIEGz6E8wu9Ks0dPilmjT6YBas6mbGcO4GemrynBT89I9qNPsVbJD5VOvc8b70HPqy1g77Oyn08Ixe1vpzpDz4gzYq+6jKMPQEg572qyKM+89whvqlbKL0Fp1g+ECljPc5R1DwBWOu8l5pBPMziv71rjqm85PCyuzocuz34XyY8CcLYPTJUPr5PkTQ+hWNqPZHcUT65PIg91eVPvP+NkDxtphO+hY7nvL/Nvjw37Yk8mnRRvmpLez3PbAC+VNXbvEXt2T1t0LS9Ph+AvAVbYb12Uoo99HsTvkqNRr6iwIS+3UKLPtqJrT1gIk8+v4E/vayuDz4k7WO9uqIhvmfS2D34wRa9TRIFPdZ/Vj05a5c9hNvZvEPOk77kERi+P8SQPYs0eT43FpC73JswPr8bmL50uz4+2VoRvv25Ab4EfRm9+uYXPdpPGb7CAP89/Jk4vhNMizzEQeK9OYLaPNofgb6fs/q9EOEfvrng6D0LV4++l45dPn9kg73BX8I8fwqjvgoHzL1IbtY9wwtAPj6v/b2X/RA+/DOzPNFZpD0qmdm84OpBPlORWr6QdaQ9jdJEPivmxD30wxK90X2EPd3XBT0x+Ay9k+kIPo3gKz4AKy6+EeJtPpru0zsZ1K68fCrtPUdnxL31tG89yaknvWwZj7szXEY9ejQtOzkJKL1aQxo+6tySPemgfz2yi+I9SreFvkLG6D2apZM+bGMEvgYooT4iIWW+sIyyvaWerD0JBZm9FdzjvYG3nDw64189A9vfPYZXC73N1IG+JJaSPZTQJT4jKmy9RmfJPTt+Lr5c7bi979wXvjSxRDxp8xW+2ABUPp0sgz2oirI74D+3PSyEIz4WC0c9kyjWvUrGMjz1Zl+96d6JPbYyRr0eIBE8rmoGPtZxzL2QOpe8N/3uvPsKnL3MxKM+La4VPl6hqL1jZqS9KcUuPescIj5Z01G8bD3aPWGgX74+CE89MKQpPjBEpjyYrKK9hT0OPkm/+71zexC9wy+dPSVs6L1Lrak+UhPCvJ7LgL6YUA0+4Y45PSFxlruFU3w9sKikPY8ZT7xD17E9IM9LPUH09T15lXO90BxBvQTjoj2bjbU9KbkBu/bBVDzIG/Y9vCjYvQHZGL5DGM095dtIPV7Asr2htQ+9jSnBvTuGhL1Fzyk+S2vcO7DtDb6RAIc9DqWHPRjc9Lvz8Am8dXWBPV9uxT1l4UW8U2GQvUib6LwjCPs9URbGPQxkV72H1bU+xrigPlqvBr7t1AM+2wv/vSbmtDtg40Y+GCfGPW/NGL4Bk4Q9+/ycvnMGS74qf5A7F13TvUnmST5hs4g8J4gjPkvOcDwYka089vqwPNW2ez6GDU8+Cy8Pvr4NBb1/z1c+IcFAvo5jaz5Ja6I936ICvkUzjr4Po/U7lx9fPrYg8DzB5I096Tt5Pd6d+7yWX0s9ybOgvf29kr26eey9Nno/vT7LP71CIb882e4wvUMmVL4lgQ2+sTUJvbJ1hz3pNxS96xNIPZTxRL50Ohg+ZylsvTNOzr1hv547F8RmPWFu57xn+Kg9fQ9ivhLtTLyBbNw9yYh1PTE3Eb0koyY9VtxgPu+NEL7JHwY90zuBPAixsj34EhK+xQdNPrgh3z3UZ5Q+sSMlPP0Wmr2B/mW+fa9xvd1rIr4qt4C+Kr3dvanxBb0u66q8U26lPsGWRz7Yysg8iHe4PfQBQb3q1FO9Vj5/PWMNZLzb8Uw+yZjAPXZ1BL51vz6+a/CiPA4pGj4s0gW+7uztvfPEmT5sZHY736cpvURDnz7cYxa9/YAQvux2KzxN0h++SeRKvskh9z12lI69GG97PYe9Db6gA/a86V0dvrSG8b0TL2A+yyDAPRi1rj3cjii7nrMxvUUAVLulGFy9lSOEPcUWP7xxGcs8FVurPl61kLlAJQu+0Q1MPs3nA75scgS+dwJoPkzcZD3eFgG+hlVPPKyBNT5Qc+e9o9fdPJ59nD480oC8kWJVvrSoQb26eA694rSEvYVvYD5HCdo8IjOtOyDRjz05NKQ8b452vu5zrj3qvI09ozZKPcx3vT0/fQ8+glIyPuFYTL4xc8G9yyICvuzyaL0xtTw9T4lkvsZDqz34z0G+rFv+vWAhHL7Ef3y9WmskPbqvg76p3Uc+hxz3vYl8ij4m/kS+ORjdPVfNkT1pku68sEc3vl3Cb73vESU+LbDbPWQ33D1HBD8+3zB5Pelk/buhd989jYayPQxZMD6NknQ9UoWcPYCVAT5cXQw4DsoKvj04j7tRrks8WlcQPi44pz0CG4C94s7sPI6mGL252Xy9VHLQPd+yBb7rLAg+UJMvvWRFXT1SvUy924ypvUNFob1SXNg9201ZvgI7cTywwaS9n8iBvS9kaT6EeLO9xrS8vbL8Rb46YW+++zP3vPZ1r71r3rA9rWnPPE8B6b159zs+PrwMPjerGzsamcg9lUBbPn6LST2nC4y9pANwPJXesTwJHg49lqoSPsimIj3ZdlO+t+7MvfmDCL5JgzU974gJvQaSND2kHX293XS6vaE3Aj5JVk49XhX1vE/aVL7yriS+kZkXvjSg+rs8Z/W97fYIPikPvj0r5ai8AwzavRKrgL2MBxU9DlgsOw5r2bxbIhY+Gf8yvYdcjbxt0I09YaQKPYFYCj6VEXy9uFjHvcJpqD2JiYI8K7vKPazFuD2//rQ90J75vbcxRrwoIIq9KBZvvaSZfDwWCUI+C6qFPsSm0r36+6a79w/OveWgx70oZwq9MJVPvm4UOD1/VBC+6hezvA1ozL0U8q09L97MPQ3Dmj3tnfa7HAVOvtOlB773cmI9QymcvWZEJL0pmoM9njmHPubVvr0b/Fw9ei+SvT0nEL6fiTC954IBveY2X70vLYI99EsUvQL9g77dB4c9Thd2PQ25N74bHq29GeN2vViBrT0iaAC9F1zzPSz2wb3oJdo9ii5YOR8KPr32T9U9HsvLPd1Jkz0ha4O8DPcFPkzMGD7JSR+9jy5cPFQVQr7IiK69pTz5PZ+X9L3QACs9ZS6cu7pgUj4gwY48nEVwvj5nWL04PVg93YGbPaXAbT2AnCI+4V0BPb1lcr4hu6O963DYPEAor70PKjI9A0IRPdlrTj66oLS94tsZviGaIL5Zm3O9txeAPWFCoLzBdLC9EeINvkTo8LwauZ49u8IOPgXQHz521rU9bqobPUWrn73oTR89Mew9Phw6XTzJzr49iX2gOcF+cj1IDe29ifAjvuS/+71DT3m+sR3cPWyNmD5xtdW84z/LvX0iNj3iGkw+lVA5PCpgJD4qEZy6W1juPPAXQr73CDM9Gy3uve0RBr7bh0i+nMmZPexCkj4iiLi9lgkKveigOL1U22E9jcT7PddalrsL5Ey9DhBmvrb6oT2pTiI8aWRnvnVHFr5ddvy9P1NkvSfH5b1PE8c9zoXzvfxQgb0P9QW+a9uwPeyyXL0RSC46rHqNPdBHqLpCRpG8cIjAPbDSPz3uTG08FQdFvdYApzyVGri9BnE/PrFJET3FkGY9cS2kvbyJ5LwntbA9q355vuuGCr0iTKS9hSYRvkQvrj2kl8S9fAsFvnElAD4FgHC+IUsEPlF3CD6Q2IK+4HHpvDnaEj0yRwI+ndKHvVbJqbxLnr49k9jmvdgFlT3Ucw0+ajwGvp9IGT0txh88nnQGvlVkmzxP7gO9ojTLvZDuOL2XG/q9k9xLPbiwUT07rcE9zpZNPAEM2DznHo+9hMymPTf9n708jJA9B19qvbY5xr2ehEc99zhRPgQm2z3uEma99Nsxvm9dQL4agg89I7enPLIKd76ouqK819oJPtCeUbvajYS7LYEUvjOLsD3a6rS9KgCSvZe1Ej53sQG+3GLPvIGKpbpDN0U9FthEPhU+FrvjqYU9xwo9vNBHVr4bYQ4+bYC7Pd3FGT4Bqga+7FORPAhdcz7XGY0+p1waPOmYFz2fwfW9zdTSvBP1w72j2wU+tn9OvTYbO7wsYMs9EiuHvC4UBT4vaqy8J7C/Pa95Ab5cYQy7I948vg7l3L3Q8by9b2l3PiGDB756GHg+LwqpPcN7bD0ArLq9QGbQPWWOcT7/mfo97adLPZshHDxe17A96fyiPFo51LzwzN49pbMpvUEv4z2Mq4Y+mc/1Pcj0dr1Ygb+8ucEHPvvb0r2pJW8+VMPHvP7njTz6Elg983XQPs8gM7wjhJK9lrJOvf9PqD3yIlk+CTUCvut/NL2xjuC83qpFvVYiQD55uuI9dU01Ptigdb20Ywy+5l7Ru/xgv70ANdw8T6QHPv3wi76QC709thOJPqDtHL4vmyQ90sMWvnt3372d12k8xotpPl7zTT6uG2k8bG4DPjv/sL6XVDS9PHcAvSLYkj0bosi9NpfivaRF7L0Ay5E9SeE/PaydO71Pzu89U1qQvCWgoL2wtrG9agWGvmkxqDwJzLE9gw5/PTNRqj4nITS9cRclvmnTZD4EcUg+osPIvbCO8bvFz3q9FoiKPY96LL02IsU9Mb37PdjTfT7qI1O930rGPfxzBT5jAfg8P8BPPpS0Yj3N2JI8PiSIPl4Oxb2i7Rg+PQS8vag0mT01K9E9x9z0PV73OT5KMaq9T3wfvo6q2Tz4vSY9rkohvEyunz6J1oM8HJcjvtGZtr0awnI9yc05vEETGD5ucOQ9PhnsPSUQ3T3f99E99BVvvIhdSD7hqhA+3SSyvU9pZT3ThQU+4cU5PgVqdT01xN09eEB5voQpAL0HRpQ6fBQCvqoqO7kQVgW9znkUvnt6kD3Z86i9MGdHvX1O+D1NOqW960gzPkRecT0ZB9W9/tg5vjmQJjzdaru9fhsXvj25Ir5RvYS9DptzvXNxpTx0ICC+InKHvShtn70yFsG95qQmPoQJCz36Yok+Dq3KPVjtPT0LwiA+U/IVPphgT76a0c29tSrnvOQmEj0sDhA98I1Fvm5KQT1WIGU9YjXmvSSNFb6AAZI9HapivROR2T2omgE+M5pAPeeRN75NCeS90TZqvipngr0yzeO98SFIPmsapT2kj/68NDEcvoMfZz6MfOC94P2AvtiMwL3naji+IRXRPQhpA74bJoM9CLNAPiWC6703hHG8tFp0Pu0yCb2LYQO9gHkfvZADwL0cNsu9atQFPuS8Hj5O1+a9eW2APpnrUj68LR69RtlTvkbLAr6ajs+8B5T3vEn3Wz4nlyO+1rJqvKJ+xbwLb9I99YPvvNqCD72G3xq7eNhsvSzgjD2CEY09rtrevY0e2j2rYyg9UVVvvEtt+j1lhyQ+zhTEvWqNOL2WTls8W71UPvCQTD3wtPE8bEeAPrxW87wRf/o9diStve7NRjw4Puo9nGa3vaqAqL0KsIa8r/M/PrJTU77cDJi9t8b9PeuCjL6yI3I+jRyoPPRPgD6QpvK9peDTPWC0pr2r4RE9ImO9vUyhor2Hw1u+1mq1vr855bs0PJc+ku0Vvdoaeb3Unno9lomrvQazg72biCG+/bvtvSzyCT7QDNq93B3PPDYxPb28gt696/8ePSWc0z34ehy+5Z8yPWFFyT1Ayxy9W14jvK88Ijojd9A8mGAQvrIOhL0jvFM9fTnCvZA7Mby/6RS805HHvYFMiDyBYic++QTLvWSUnb2ePqS8CIYavgQTmr1h4z2+F+xuvpF3Kz1kY9Y9wVBePvjSpLz0n/Q9ZOYWvewOvL2TJKU9PKoAvVOOqD15whU9nNT5vVDtDL74mwS+vs6ovb5T6D1nf2a8/xk2Po2siz0EDLa82zTbvX19e74i3wo+JPkmPnUJ77z8118+EScEvF/qQ7vV+hE+3r3LOpKWaL00oze9QPhbvsz4H7yetiO7IQMcPsLdpD1Z5r69b2fOPVIaFj3Mdkg+p1PnPYtGVLwSmQU+AAE/vcCK9b366fc8/Y2OPbrTBT6yT267YsvtOy6juT0qcxS80h9OPu8wPr5yEyK+UzUNvYnTDT7xIDy8gmgtvpXNxj347A++DzwkPrqV5z3Sr0A+2YIgPjsyDD4wM7c9vIQevfcQT7yCI+c6RpfKPNyhib3cB7u9ecE1Pt7hFb6+OQo+KE+CPpckAr65BjI+O31pvO2pOz6Qwo+9udklPk/jr70/bCe++4hiPiNK1b2jpyK+nlKPO2uhIL1ldRg+wXPdvRQpX71QkMo99Bq4vdxuBD45ogk+mzl+Pnp2hj4pCbm9MzG3vUDN6b0SCgm7KMWAvEnb3bxF/xK+h3gmPha8Pb4doom9hePMPZSWoD0W+tO8lqvzPbsIKb1Gs30+zzEGPp6rv732pNs9EzXgvN0zRT1unhw+l0fTvXznMz7Wgwi9OQwMPnS6Yj2tHI29++4tvhiyHL5SNhg95SsLvi02fb1QT/y8iiKkvbveZL2Ab5s9WjoPPigDbz27LqU9ecyIPX6YYL3g4b08K2JYvrkOJjxY8lq93GcePpzRbb5Z9gi+Vt+RPnslvD2L/zA+0ufJvVkWOr6PAXc9TBikPHhXiz3w+EU+0bPaPYwRRr5Mm4K9gzeNvr4IjD0DNW69W6kivtYOOD2zfg2+qA4BPqaTtz1cBI8+kbLAvRxb9D1C6Ga9SRgavufabT473Ae+bkhTPnr3Nb0Eerk9RJ1avRLuxb2Ae+a9Sa5VvUP7+zxNYjM+7yzLvctfaTt16wm9AagsvKTzAr4htTC+DA5wvY4dhLtw65k+ess/Pr5bT72qvyW+udRavsx78T0OGBo++umEPhF2Br1JYEc9NHcvvUJfNj7Kt+09dUbGvVAqrTxpzv+9oMZjPBcvNb77/Mg8DakYPqHKIT6NnB6+4jnROwfoKr5dvws+qHNQPXlCEb4B2em9gSuPPSpuWb5D5Aw8nEk5PT31qL0W7ge9KyA5PIrskz0z1h++LdOPvf8IzT2rG6e+Z/36PdcxKz6tzXI+/gWXvscUa72RwaW9HsM5PunXqj1PHwM+Ui+8PQMRQ77vEFc9gWGLvpVAYj0YDs48+L24vDFA9DzmArc9chjIvfmRNz0JYzo+851KPUg67Dx4ve26VR8mvuDZNj66I1O96NSkO7C5GL28EDa90/2Wve1KtL3CrO49ONIuPh3u9zwy3RO+yIkHvJAdjj5y7R89FJXIvNey0b1Juoc95AP1vJNcJD6bGQs+tZ6DPb0oGjwQ64k9kJwhPbFf77y5OCo+UNs9vPXliL2nvVa+XgXcvExQRL6sQcM9QVvOvQdN6r3B65C+o2ENPesXG71rMLM9yJHtvcjtAj6mE7091N1RPrXmaL3liRA+i+PQvbkNWDxehvG8MuExPlOhXz0573o+195MPe7utzxKUwW8WM0MPYFDt73+Uwi+tryHvQJMN73XXoK96AiMPsa/srwqfBS9BcohPm1H6D0M7bi9gWzcPfucAj4GKtO9ohiGvK5YuD2omuk9omy8vbxEGj4E5I09xjnovbgF8LzlxGs+k0FMPSJVcb6HRh6+lhtCPrbvyLvD17E8VdMUvjudRT6YoWO83p6ZvTfHdbzq4MA+eGOFO6brQD0GGTe+4IOgvdz8bb6KdPU9AMmtvdCpZL2xV4I8uBA7PTAAhD7q9VA7o3QHPlBBtr2z7v29xjS2vV6K6bs99AQ9zF0HPtAh7D3LAZC9SvgXPc5tCj7q6yq+UnSsvTilIr6f2Zs98+w6u+bR3r04h4I9umA2vQap/D1tDsi8nlwpPXPBMb79AWg9y9hBvfqLWL5w0me+Ejz5vQWbyD2Emoe+FoMWPugasry0pO88LP7APcaByr3LTGm7N8OUvP/Klr1IFNs9QC97PBt3wT33Ftw9oDpNPRH4xT3s2Q++Xo8nvof3OT4zoUG9OsOmPSR9DD61OTw9p8XOPc5XG74HNii+vikUvtOom71gtKa+U45OveYMbb7IIP89MnFdPTHneD3t8He+MdtIvcM1Oj4ljba9OpXbPYAs4716/5y8B2ipPtChqz0iZSg+aEnHu9VuRL4N4Dm+9WTUPbrRGT3qTTo+asdzvdM1Nj2EB7K9eDOqPcBBhb71xpk7GgnjvaaYhLz13gE+iVFGPex7oD1ALsu9QACrvmMdEL4BAwY99acVvp74PT1Cvmu+yJOgvHqEKj6OsYA9OHvZvevYrT1RWYi81sGfvTD7Dz5JeUI9Xtd6vtQapL06eUU+6gdsvMtsfT7B6sA9E9nyPZooVb54aHS9ZBRBPkXCLz7X7cg8w+SpvZ/T5b1qZQu9et9avFwN+70zPvm9bxeRPQA9Ij4dW1Q9WvRuPLTXLj6y0Rm+vn6mvPthS70LEoa91qT1ve4JAD44aJc9t1vtvOgORD5BOT++5fC/vLS6772wpFY+0ve3vJKXHz1lCzW9a7MMPrdHjD2w+ng9tOqgPAv42z0BcIM9Dw+fPXG+Nr4OQBw+8q0LPg3YsT3SuA+9BLq0O7jKCL7piXS98USAPvcqZ7y5Eoy9vscYPRmKbLylRAe+JzN/PadlWb27CAU8gDkZPn+MDT3FLC0+WF6MPTVMqL02tcC98kdFPNn9Ar4WA2w9ZflAPhpb1rzXRWO86Yx1PrSW5D11xJM9YDn5PRtQuDw9+Uk+aw7yPS8Mlr6Wt8M9qPRSPR73QL6rnhI+Nam7uxMNjb2XLoS+AcHZupNqujrvtaA91m8APdJqFLv7KMO9gdIdvcRUkD1sH1e+gHiBvcNNzLgKXZq7viGuPd39aD7OsiG9PontvEO3R73AQIi+iqIaPnftLD0/ZrU9e0ihOwXg2z2wIeq8WZq1PWG0nL25Xxw++uQSvlvotD0AWgo9GHXVPWm7Ar0KDLK9/2yGvfOsCr0DuYe8AyjyvZFrFr0r3mu+xiJEvXOytLwdcXo+CTZLPppVHT6hksQ9nVhzu5otWL7uICq9A2hRvSgkur2Y9uY9O4T/vAtKyL2trFG+07IwPsFT+j0kGbG7WmtfPYI1S7zKFL89l+4sPVCBXb0YeZu912QhvtsaLb2vfBM+EnNivk1zbj0r/Go9qaybvWuUSb68sJq9pV6Zvf8bkT0pbIA9eesOvaoElj2Za9G9qp6jO33eDj5y0SO9qlUbvCnoLL6khcC8iDt3PVcBc70e1jo+o1CnPRwJIjwxEfM93M0dPmTdHz5xUvy9XfSxvdKSTzsgPbu9NSp8Pug2cL4uvs88tgk8vrJBCr6nuCU+RiFtvD+HeDwThXI9G0hxvfEgmD2VqZs99VSlOp4zOL23/9s8OWb1PZ9knrzRKCK8rNspvn284D1Jw5+96tftPT7Nhj3LCSM+lJVbPUC74b00WZY+cIMfPlC0KzvwCqm9qZMGvoOORz7/YuW8lPEuPShd3D1k0SQ9tFeLPRDYcLx7srs9SOgEPsSgMLylnTY9D80ovQUOED2twC0+fkRIPQ+OM73058a7ZGYHviryAr2hxyU+yS1JPncSXb5+Rrs9tUnmPLFgV757u1w9lndHPRjcpz3LKCC+1chzvcBhYD23WUy+RkU/PtuxOD0ldG29GcAsPpgUGz7ASj+9NkvtvQh9yT22wq4+uD4CPZJWNL0opA2+cs3JPZ9UIb6DaaI9a76FPZhoAT13NgG9eraFPjTYIzycFWw+W9efPfX/Lz4Ldme9be6FPXOrATxP9MW8LeoZvpQddjzb8o4+mdhoPtrbgLzCF3o+bzLIPExJy71MMc27vdSEPfMuxT1tftY8aTmaOx32oT2A/I081nwAvgJ5erxMleY6es9hvULDaT117508z0SivZKZJT7puEC9k5UBPX8MX7x917u9R3+PPSPG/TzUQrw91111Pj2AHDxd6Mq8uCS3vhO3iT3G2ae9bLy9vc3LkL3/uGo9130Jvcq9AL3u0By9fcFeuzGIIr2czLe9cPsIvvRr8T06O3k9AX+Wu1UQqb1cB1w+WLVOvQW/qz3KuBm+ATYKPg1ysj3Cr+C9CFgqPHdiA77k3SK9xyMkvgcEwzyM1AE+guGmvQlIR71uIiA9BgVkvklvfTxaynK9bWZoOxLrrr68xgm+wagrvd3ZwT0GFCq+EhYsvuEuJr1BY4a9NozsPK+sx71mWtA70gMFvojjoTs5u+I9SbKavdjLgr32ajE+/IPevXJHC745BFG+Z5fevSQnkLxBcnm9/ZmJPh4u2L1pbfi9JrmXvJG2ET4D13O9btCJPCcrpzzx4Gm9clAZvJ4JGr4PqKO+j6twvdoS2j3y0yW8VhUJvrxWHb3rEiE+OHABvj/8lzsLAw08y3jfPXIbqr3/LRM+QdV0val4sT0c1wQ+pN9ZPreXYD6nqPu9cNg3PslXQ74vN4i9sZYHPUtiKb7MQvw78pV7PXlg3j2sabK87E4fPpZaxzvpedY9p2QBPgTUbD6Gyk+8d3+QPcHaQryeTLe8Y67WvUCe/z2gZfK99rwbvtRWp7yymYy94UWSPhmBBT0SJY0+4mU0vkFSt71agy0+wOmhvTIlrb0U7oc9knWzvawZtL1EAcY9q2kRvbPZjTyPxRI+S3YfPmTF2z0oWH8+HA86vaUD7L1x3mg+A4tCPSAkB70zXoi+k/YHPkSb2T3s3Li9d9FLPRa07T3EvSq+YPvAPT8w5Tzux+e9v3RMveBmUr2mgrG9WGUzvSHmcb4sS7i8P4RnPnegMD3nSLK9MiR0PZUlqD3WtX49Z1MLPtgk/705FAI+DxoXvvxXqDw9P0y+VUwCPSR1XL5ASME8RfO2PhjPYr4Tr1s8syPRPDIYuruw9po9CswyvpPPTT5X+4A92OWwPWjhGLx+sdQ9C2Uuvukq6j0Um5q9Gig3Pe6euD1jmrg9VF/gPbxSYD2mTiq+Vf4JPkJtJT1+RhU9rgMxvo2De7tdVHs9gB1hPRdIuDzuBRA+9UcGvmj4Jb50aXW+kb0BPf2qhz28Dss8hOSQPP+rgr6/P3Q9TVkfvfy6Xj6hRx++KA0NvrsXND2Jr22+1pzKvbrFMz7VeGE9jNBOvct8ZD6r4VI9ZysLPSrNib01lyY+9MVVvof6ID6VX/U90eKsO9+jgT4J5A09KhAzPZ/K2b0r4G69UcqdPf8+mz0URSc93uAYPQQ9JD6QLOy8aC5CPQJaRL4AFto9qxcKvbrHTj4enp09PfFuPY9HZr7Vsz++tyVgvKyUp735E4i9uo08vZSh2r0vwN49ZCJVPZI/Sj68LgG+RpCHPjNpjb0rBMc8Lc15PrFaCz7JdUW+Cc7bPQilRD4Rl2I9AuWpPbRE9r0h1IS7Ktx7vVkrK75nLM69z4ljvegM170AeMS9jzyyvStkMT6iPDo+jJSaPhUtxL0tGzY9kAd3PLUtj712Hsu9dSHqPQRj9z2eK4M+PqcPvuwRNj5jxIS9SQEFvkiU5D1EsO+7xYhQPqt0Z77P7xM+QVv2vT5+u71p3YO+JFGaPW4pTL3cCSA+To0NPXaZ+b2YvAS+DZEPvkm5Kb72E4A9uwINvllRnL10Yck5RgENvcIwETyLebM9fwB5Pf9hDb6nKeS6pEA+vmSrGb3t0lw9Xpc0vTPiXz0O4DI+nKUzPrmdjL7gaa+93VuDvHvrBz5EXEe9mNldPoOjnD3UDeO9z1DgvVEaxr1JjVO+Q/cNvWTrMj7UoVc9lOgaPvJbnL0ivdO9yixVvV/z5713dns+4ywRvfQeAj4X+CQ9hemPvQgZAj5y3JI94IVCPTs0/LqMPA094neQPR3kXT5SWw29r3JmvTWPEr61UHK8rxA3PaCpZj6XDgy+UyyFvsOAir0Bpgi9aFe5vfrIkT7mdLe+Wq8PvkEKir0YmGU9eq/IPUi8zjuFUpY9facmvTBzV77XYOo5sQ0NvtdTkr52t9y9ix9VvY2IYru0DKk5v75jPFbqSD5ZWww9x3EFPSAuOT7+dBQ+V2jVvdyVST0iuMq9kDa1Oy1wQz5fcII8vgI0vceQKb5x7Ec9UI44vB+W1D2DQb09wyXGPbjVFj62KZK8VqUvPjfVVL6X0xM+WXMJvvjrYb74SOK815ESvfh26T2fbMa9nEsavl8MhDwHCHY9IdTVvRyNgDy+EBm++1SBPDlFe7tAuJ++S3RzPUpgw7xT9/u9DY1wPlS0bz1hBWS9AJ2dve8lBT0trNs9EfKCPCI3kD1ZovO9t3nbvEw2BD4seG886+eaPQdqEb22ySY+niWnvfPfzb1OmCi+TQoYPVPfirxFedc9eYZyvaLMSb680q07Yy7lvUyIp724Kwc+kZ1nPe4rbL0O7p+7hQIZvoNnL77/3Yw9FSETPmMCTD0zpga+K5CCvJqfRrxir/67Wq4qvksJbT0ONcy8890Pvmgjbb7TKhy+YyfJvet/5zyCWsU9A+NHvhpwqj2L+Mo9jJPCvc8Vxb0YKm4+rdL3vPqEmD1cVTW98MUXvYn8Pb4lQue8JFwXvpM59r0PHXg9n+aNvcYBij5ldge96/POPU93PD1taju+XvGPvlxdV76uAM+8U1MJPuNopr0K9Js8zxKpPAFNqT7JY429Qi2GvV9A+rtaSoM8yOKTvu5WP7ugS5u9dhuevBV6/L0nj809628HPsQRjD3PYN897CTkvUcj373I7J29KFazPcL48D1kjec9pkSrPN0aET19JtM99Q6yvfrAN73xB0o91bpIPn9boD2b0YO7b2N+vSaikTwV+a6+wDO3PfMaeT1KUNq9nWwsPUvo/Ttl8QO+xGgvPo+PsjwrWgW+xueKPrMyubtYEay9wmG/PXYp5D3mECE9gA66vm6I4LuLwxe8kohavL99nz0xcv88PCT4vHMvO77DIq09sCkAvUsQpTySfhQ+1brZPdUdwzzBgOW9kkPZvapOJr6xCo69mphjPtETRLywEYC7Lt4LPCqdkz3zZBg+nf/VvI5Mzj21qcY+9fagvv1FHL2VBBW8ZmSMOx0KyTxmIKi9PkjJPoWtGr2LoOY8GsbivJmeiD3s8Ic9ppcePScUNT56Xo+8h0QBPopzPL4RdQI+YFWKPV7Ekz1vz4881SEnvf0Klr6VCpG9FakAvdCpxL1LCFU9e+A9vcPViT2Fcpe9xWNrPaTeLzwgpqO8vXcPvuB5Jj53bz+9z3Udvt1LKz6+fdi9i+jjvdxqpTw+YTe+ZgKqvbd2Zr7YFXO+TaPKusuX17zAhiA+ufVmPhnzCz3Ny1I94xoYvhzLaL0nrEk8PYL7PbBWnD3b9qy8SI6/vFe40b28ojS+Hy7ovTrGBrwl1eI8KLbgvIvuEz0/bWc+utfcPFH9HL2y62O8QP6Avk6Kjj1J/eo8z/75PErK47050M690Js0vi+jqzsz5LU+Ny1kPdKjgj4W8s29s5+ZPAAoAz6xgBo+P7thvqC5dr1gv/o9F6lSPq9esL3c4c29T743vsI9pbwEMb+9jtBZPmJTND4S0cE88eUrPuL7vz0i1tM7O6+6PSAuvT2E2Ew7kt2gvWVf5Ly6Nts8KAYsPia6oL2qcKK8HjIZPs49gL0A7vE9yp4Dvrd6Mb3Psva8PnM4PspoNjxHQyC+fFUgvhDcez4gJYo9OyhovRXx1j38qK290dFDPRkjor03l4Q8DN8XvqW8RT1hmQY+5Fe5vP0tlz1ysMK906YDvccDyzwkudU9B5wMPH+sfr020hK+4P+MvIKJFL7/qM09qGxkvgyd6zw7C/68bN0UvVY3Z7utmqI9vogePaHgK76RwAY+SFcDvrOz8bz7xpM9Z/t3vJlb6r3If729w7h2vd+ROj7gOSu+l0oGPkGOKr7uToe9lzR6PVMJyb0QkkS8y90ZvR1X9b2PXlI+zlWyvLzmRD5X4Ie+9n4KPu77GbsCqIa8+dsOPmwK6T3+Sx8+4JTTPTRjAL3rlGS9maWEvZUVFb4GPwE+KN3MPeJKJz3GulC9SM/KvUZ7UL2ENOS83a+DPXTMpD2aDkm+VeYvPLvQnTwXcRw9lRoHvqrd9TzOwCa9KBKCPYHqNz1JTLE9ehk+PryldT2mDpM9avzvPevG071n2YC9k7luu/hcJb24D04+ttrKOyhoHL5itFO+IS+qPjBJu7oBRAA+QJCqPdIEYz51WeC7bTmYvvJ3IL620da8dvuUva+fnj0ftnW9fm9xPgphoL3j0FA93wxBvl09AD5G3kq+GY9dPFtwqrxgpiS+H0/gvcHJVD1zBqy91e2RPVoPdb0KwQ497hqevdBzyz38DV+9RuwbvnX6ED3AkgA+8AutvUjFWbw4NDi9vmX3PQljq70WH9O9ZZC0vW5Yzj3V/ry8/jngPXla3byaY8M6+tLnvZo1dbzudUa+RBN9PAJvAb41MIQ7wtCMPN6ejz1a9ka8VIxqvSjvjT4D/Sg+4dxDPb7gAr4pwnk9R7nmvWzG7T25dRa9KmuDvE8gXT5hjiU+6Rd1PUzS8byg9hi+qET2PYOzvruQq7e7GrSCviRZDL4jaH++jc8JPLYpc7xkQGq+DZjxu0025b3zJZy+66CEPWY+dD4ng6a9F4+fPQBsibszUVG98nOIPmrzFr4Mrqk9GjYmvi0jDb5bQbc9trf+vdoRC7sX8Iq9xtfePDesub2JZHY9Xj3tvcL5jLtclTa9JAcRvrG1L76KBqC9CxyYvsjakz4Y9+k9LslaPULoWj47042+jmOzPUPaSb6lByo9ccQAvH9tUL6Z4ak9B8cQPl0ECz3nRbY8T/ynPFjzKr6yWeW7Tl21PUF2Gj2IwEc+ysjGPFbe573FLFM919imPe4scL0Hy5k9vaPRPW/jlb2vhs49/+MBPnfeF75ILmS73C/GPaJqTDxM3Mg95dZlvVOhH74xj4I80mt8vvnSDD1gMT8+i3ZGPbHnU72NKJ29AsGQu8s/hD5/6Mk9IlBnvMr5Nr33ptA81BdtPpZdAb57ArG9bi2IvWw/ALyaUik97wN5PnbusT0IelK+tTAxvvNu+rwKOdg7A1xEPSgKqr12UgK9ePoTvm2CAr5ZyRe8zIP9PZRpJb7dgQk+n48EvfW/3r12fbg9M14Vvf2SuzyKHMS8XH+0vBtywbzMH4c9RQHUvRdWIz6KJOY9yE+3PWBXTD17Y+I8cMYfPreP3D1/EAc9f0RLPXHfSj4Fi1E+wrg6Pll/prw9Bj0+r33yvJwQ5j3q9Zw9NXaIuwmtrz0sAs49Yb31vH5emTxTC/C9RQCjPki0w73VUHM9bhmGPFopBT7CnXy9l8wAPpsvMT4/bzA9rPMlvWYxoD2bNBO+acmpPHmzKD6q3No8niqPvsbDt71nkaW7uqxRvb+tc75k7x2+lRzLPfSWxzuFnqi+Bx78PYcG7bzQj2e8b2MmvoFvbz2SOrm9Ay4ovbzLE74KbIu+sPcnPqsLDL4w3sm9UsgHvLJctD0iK5W9N3Z7PWpsaT53B009JReovY1WEz4Pmt+9ShtcvSULjT1X2lo9UmxHvkPQgj47n5094QEpPkH2ZjriqD4+mguUvYKq5buzSZy7v93BPfxHL74GSt89QMIxvVAVlL1+VBQ9ouV6vhDhmD0Qwda9N3tSPaaUhD2Z2Mg+3ICqvnkx6L323Xk+Y0b6vT5PybyNSga95MChvbYgez71Fxi4BiZgvUkQMD6/M3a94bt2vCopxrwgx2o+ZP9ivb4AKr7EE6g9G0sBvuyXsL002Rc9DEMwvR1MIL5FMlC7WJkRvk9xhTztYha+wkk9vTy6ZD6pKN29qqYZOx4oBz4hVQ0++AGnPWcirrtawhU+FANPvX3Lgz4/ntc8/WJIvge5nT7vw2q99BxjPeNx7D2DlAQ+W0e9vad7h72EMzA82u++PvP1cD1ht6e7EML7PFUo9T0dsmQ+9zx2vApxnb0N65e9rleVvZ4G5D242X49xom2PdU9YD61j+S8GqcMPh+KbT2BVGe9v594vbSOIb27KEU8Zg7zPb+9Az6rQiM93WMHPsppCT24ezM9dcx7vFQpgD5IJFE+/op7var23j3JBvY8VUHovGR7vT074bg8gq6jPP/D57y5mz+85gktvlOeqb3whie8vSHhPfBSTT5yKTg9StQXvuzhur2ecVs9feB8vaPSDL6+cx29bSTvulQ+Uj1w1Oy9z8qQvKt/oj0Hr7A9310RPkrThj02yWU8PhWJPsEhxLsYwlI+xjCFvU1aFD7CvTm+9ZnAPbZXpr0KvyG9rMIEvRVKm72Iq7C+aeF6PoHRRL2Q5jC+FQkbPilCVT4E8we80MzVvMgqHb6jtEo9nxcBvg2hdT5EeqW8sI6IPRwB4L317Ja9hvNEPQIKCr5C5tg9RfXNvTO2HT2qwuq96BXoPWA5Ob42ZRG8tAZrvG70c76SQsu9xBJ/PMspDL7XGBK9GBmuvreg9zsZWvS9mPoWvvfszL2S70+9zU6PvbYtHj04AuM90/5hPftL+Lydyhs+qx70vYPCXL18br++Ab5Hu4PKhL3g+BA+PMd1vbn4nL1I15I+gglWPZzqyb0Pt0m+r/ArvrRdDz5pNL86FgCEPZm+Jz1Kwqu9FfaWvQlCxz002xC9cyQ4vZsZEr1nbgY8EO0qPqAkPD3Pr+c97yAHvlM++71pjB8+YvhoPTV8Gj2lLsy8u89IPpx7PD32a0e9zn9KvdPIDr1hBOM9SE+kPY5Yjj23TXQ+d6duPb7WOjya+bM9sd+bPZLyU76KHQK+sPLFPV7s3z0DJvm8ilxfvWpIJ75LY5s8UNUpPdAlrD1gzke9SviQvWLd/T2LvWS8oahqPF78T76iK3O9ZlQoPvVEKz7dnQC9iKZyPeZbDjwiLoU+xmijvpTKGryba9G+65m/PT9GST4r1lu8/NKcPDgygz1/ohk++2qIvj3wML08pSE9dkFEvQrpqL24Lea9OwsUvRqQ8zzX2BQ+uYJOPDBw6L2TNIQ8FOkHPtaQir1gDS68N0fGPTOgnb02v5i8C+RTO3SEgj0gs3m+9Yj6PL5TVb3bbTS8U6z/PT93jD13vo8+/AWDPf4ger6mmpu9hh5CPXNxSDzsLSE+33hsvh8IWz3DV4Q8D9vbPCOEw7zc2gS9BbA3vnAEZz7nhPi9emP/PR972rztdKm8/aBvPqgLyLyFzRI+d4psvP86lj1O9ki97mMCvuLPt700oM09n6RrPbd6MT0MYcq8TznoPE0U5T0J5ME8NeTVPGjrMr4TOZ69jdWuvT6S4L1HNgA9ncpnPq+RLD4VL4s9vrT6va4Qmz2fvVE+YawKvvNKy71ltqe+sEhFvt4CeT46xHk+jkHOPRnzUj2HJ4y9d77ZPTEXubz9XX8+48v9PYpsBj6SVbc8U6WdvTJVGz7rjke9f0Yovor1Hz66FNY9kjG9OlRafT2kbaU+J+6VvugjELxisGY9IFALvcTE0b2/FUQ+ekqUPk/lAD5ncSk+G5evveb8AL008UE9jszbPaAEAb3tXC8+5HRGPb1V6z01Q04+RD6jPadl373zwRu+XL6YvSzBJ7w4g7y7SNVYvfA+Fz3+31s89DeRPYS9X702yhE+JheSvue1MD3fCTM8UcqZPZPgZD7loew9M7bhPMI0U71c6Kw9ZwfdvEMdW73B8hU+DGgQPYIJVj0l+1g7Yr7UvUlHgr7XQoE93XevPUFd6jy8IAm+lzhvvTMH7btwUzi+k+CUvMCkzjyCLsG6sysXvgz8J723ZrK9s2chvhjOLL5DcCK8Y96/vbn7gT69RW88R2sRPffFtbtRcqe99KfNPSFhhj0nEZs9hvhWPXRkZb6xUJI9BBvmvN8rUzuTD/o9qG0RvWJqIb4D/m09PGyEPrtGI77KpSs9vn46vVJUHj4jqRk6DB8mvn0Cgr4QNjk+UDgtu1tcv73ZTbu8A71dufVezr2yx+S89F+5Pf6hIL6ZXQo+Tvmhvdug/TzqvD0+TmECvtPbgrtv6mI96QXtPVfwz71tZzk+mTd4vlXb7zwdrgm+hgOpvHppyj0e3QW9/EMCPvRcyTx+BKU9MzeFPSbSh77XU1A+I0lDviAT4jzZTic9m5dUvp0CAL02WpK92FffvQ4CHT1xu+s89Z8nPH6P1jxiyy2+aC5UPd+zF76mR1i9K4KNvZXtMb4o+pI9MYFKPmF5Jb0k0LE9bMjHvb2ujT1XdlM+6r/BPb8JCL7GJlQ8BYg4vfUqDL0RtHM+aYuOvQrzxb33RK49V8HavaOyC775dYS+1WUovr7opL3Xqay9TuNoPT0ytjxNWj4+XQ6HPUsDGL3eWF48pyiOPocd1DxVKNI9kPI1Pophg72E+NA9+ip1PTPGIL33ND4+eBnava7ABr2pByG9uVYpvp4JDD7y3Ny8/U0evte5n72+o8W977YzPsPhoj3lfhs+42/XPJUYaj2kXuq92syvPV4pOL3VRX09YtSHvJGwCL5Vm0Q+0p9EvUUmij7Zoq882ZlqPNq2nT08z7Y91XWzPaz4AzzL8ow9Tq62vVHfFr4sZmU+it6YPXxIUTy1FD2+wl8oPu4AOzsWkCW+4askvRvsyz11vwU9ie0YPgvI176WiRI+GLmHvYOORD12mR+9xvaSPduBvj1X8A0+/HHWPHd9wz3D74I9Um2ivTTTSLsGMhg+Jh+Evh8yQT4RDYC81fQAPjxwsbxqUTe+AuBGvnvjpL1HUDS+MlzPPWRvQb4Kr2y+SHHdPeSl8rySaQK+OY22vatZ4LxkEWe8LnpevTfOpr4m2Oy9ovk2vl+OBr2UrCI9U5ZSvMmFHb05WPG8gXJ8vmo6vD1INa89EnqiPa29xjzEb+69uqRBvX1nHL1Nlea9L18+PmyMQj2voU4+P4b3PUwXAj1r5RW9YDRgPC0rfr16FO+9dVT6vZ29HD2U/SG+8g63vGZ5Nr6cPBw+sT2AvMH64bwfJwE9KN5RvTHYLb5Yl3C9E9o7PrRBGT1nABE+yXmgPscIBD0CmbW8vUgkPsoGGTzUIgS+rNIpvvwFs71aQQU955UuvTt2RL2kBxa+m8p3vXUbFTwv8Gm+H3zWvXw3ij7cFw0+AYslPq59g74YqIa81891PR793LuVsd09jd1KPUjakz17LwQ+69ddvtuIMD1NxxW+R7hgPQAYKD4b3yO8uf1Lvg1xL74++r27TzehvZRmTT7nlRW9Ch9sPk+9t7rY3A2+Z72OPi/eF73Ujj8+mJM9Ps6pl7xPXbI9K9T8PbXzMT5f1QW9U8EJvk97FT5wT5g9VwxuviQqCT6z8i++F3o0vWNHlr0HHA29jYNqu23v7b0w/AM+OziQPTxqpT31uiM+8iQiPmjT1jzjTM08vJWPveMqVD3CLhW9quFdvm1Raj0pHAO++X4+Ps/gbT6m48I9i0kEvtMeRTzvfwG+6FK/vXtw5b3bNnK8f+hWPA8rFLyylx89WQkCvnZfED7TXAc+ks2cvZ47XD0MzaS9HULVvfeX27vpSPI9DK33vJ/QED2B+xQ9KOIqvpATtr7I9ja+dZKbva+Gzr2LB/S9S11ovrD74jy6tAU+C6suPrm3jz35s8O9vOOFPXEFbb7Bs+E9KF7fPcWq3b1d8RM9/xUfPdWhjjxaqGY+1+ORPI1LGr7dGhi+e7IPPl5UTL4dA8g84a1HvrUzkj1stIO8wKAAPq/6Pb4ahD++RTMYvdn1j70rERo+tFBsvFXRqzs7mB29ficrPv+njb7gfsW8xn8wvvbZUr5jGXE+B7ojPkTC/D1Ffta9qpB/PbuwdT25K4s7SlarPVihET4ZvL49SBIlPrMUDT6lLwS9b8aZPUmVFL7kpk2+H0oKPn2w5L32gR49FOmyvTHElzvi1yg+3VUgPuUsjbweooQ91SrrvKllgT0aavy9T13sPf19Tz0e/r+9UdQWPhSnQ70Mria+xgYyu0ObBD3d1Mc9ReyPvDRQDj47JVU9tbW4vXZOt7zTrjo+/tlmvgLSIT6Cjqy9bVLcPUKYar3rnOA9fQmzPfhUa77gP2G+QK5bvV8+Er7OoAa+BM3LPZhkjb131bC9BfCIvVGlDr75Co+9paLkvWPJVj5Rsyw+nXgbPA6DGT5+lq092im0vJO1Z7vriJi8yidZPqfXAD5ZJke98Pz/vUlp6r2iuIQ84Q2JPfMrKz37A9+9iPXmPE/uzj3j0IK+q4QIvh+rCr5WEIW9SG3fvEabxL0Xrlg6Xf+yviVJbDyiIty97m9VPrh7Tr6Ncyq+XMXsvXNhGT6D1Te+q4ZzPHRuCT4Kveo86YMzvsLtGLwKr4S8dos8vb+2zL13/ac9p+DVPKDR+D1TlN49zC3NvfdZmr0Z12I+4KiMvsEpJT78Zkw+M0ogOyfBlj1GVcQ+Ac/VvRFkEj7xqp09lu1+vbVKBj6Nj8U9iUGEvU7RIz4pRWe90JPGurEuIj0w6Gc+mHcxPt3U+T2dkPm8UIoQPk2AXb7FjtS9YMoIPo+o0D00NUY+GDtJPlzll7zc/Ay+KIY8viAAhT0iFoU9TH2UPolyzLzYHfY9UkKUPo3Z4j0aYZc+QlAkPrKgq72UQhy+hlvCPP9X+j2ZDB+9UzwjPmlzTj34xF6809s6vN1A77wwXDu8/tqHvM2nhj1PJya+kOOGvXMpB77LpGW+YEY6vOU4rb44zDi+AXinvVjxVr6l2eG7ua71PeJBzryecRu+bIXuPUogkz1xSSO+2ErDPSvqk7rObbo79Qc6vadXlb2pcdq9JYy5ug+/pr3SX3C9sNx4PY/TG73soy++2mD3vT4X5T1MSk4++L8QvHiCSb1LPk69fDcVPTpEGzszZ5w+BHGUvA7Ee7z4/Y49y5oOPoh0Ub3Xtr29oYW2Ow0CzDxe6de7aLBtPpESoT1JbSk+2J4VPnqdQr4d+qm94Fa4vNtPJjzmXPk8rOvgvcE0fT1J2/m9ewKgPS/kLj467Qs9cIEdPcBakT44LIw8Z76pveeO5r1BOYG9+qFNPYtep71OP/E9zWqXvTtfEb5KpJK9BnNNPXPt9ry34IQ9z7ODPaEJgD4XmXA+qFJTPeoc9T394Pk8CgGlvcbx8D3vZUK+4W3IPrimgb0lX4e9RivqvPt7c70DXoe+xHJNPt9W470J8Qu+DUqwveD3Sj2R3B8+bgYRPTvmaz6QoiM+SjInvG5zAL7hSfQ9X2FAPC54QT3sOqA9hQ/gPDhkHr0KmOu93XQ7Ps2inj1THas9dIigvSGNsD2uBfK9yHO5vTWrQz4P24A+buDbPZJdcL7dLZU9Zs4FvsvgtD0jmzk+YZRkvNZjY77smBW9t3kJvibiNLzxwWe9FzxBPpj2kb6Lca690fxWvQcls72fNYK8jahBPcJrbD4BgiW7F/h1vkAwpbyhf1m9xZHzPSp1A73hCSE+p982vhVSk75YVYw9dvQaPrSXpL2RAYE9AckGvT4/gz4IAQA+9WgVPc4fvjxydkw+OP27PB094zxhnmA82IWAPao3mj6bXgm987zIPc467b3Rqyg9oR5VvkWFST7M0fw98fBTPJwiG77bGYw+y8ZvPvDtDb4nWLK9z42nvYh6k711Hjq9jz7yPAp1Gb68PP09rwEmvGV5bruFxDM+ndwcPi0DITzJulG9TbRVPaXUEr1BTgs+hugkvqA8ab3/YmG9sgv6vF1Qljv6hWG98vsivhA/Ebugnuk9GomMvvMyhDxC67k8zicAPkG1k709jgM70uacPZKvXL0BFw+98FghvYv7Kr4ydZU97ZBVPa0kFDw/qd691GQ7PVVJ1zzqM4y9xF06vtYeZz14KpK5jY60PSeJGL41jKC+PwgsPW6/zLxfkxu+9CWGvUPOTb1vXs+9FYasPVsiXr7fm3m+xkKPvszPLj1Bz8u+9pnOPHFBJD1aIIe8DNozPBbgxz0WYYG9fTyEusPudD7ZEji9vdYQvUFEvz167Bg9I+Wzu4Pl0zxNzKS9C6HWO58zAD4EFew8wK8UvhN+8r2xnEe+MigKPUZXBj4lzJ+9qsI7Pgsvg70iGku+iK6hvVlxDj2OZUQ8iHqUuwYdN74wSVQ9n2KWvQbCLL6+79Y8v2WkPF1z4z1ziyi9vWqbPrhFCD7husw9MhBHvixIir7erUK660bYPXrlHz7McPO9259dPnOzJL4tP8K94EG/vULDsj3cHFK9LQgePo66u72Rckk+mlh4PLJykb25/Zy7e7/LPXBwk71I2869teH5PYHoHD6vwys+KPMivuPROz10PqI9mYNHvkYfaD24k6Q9nupvPoa8Dr5XOwm8qH+lPrEk4b2DHoW9PxR9vQTAP76Rcdw9+XybPhJ4pT0Pd+w9ucMxvi8GAr3/msm9o+8cvtYyVb6J4qk91bYEvpY5rT20e5A9JwkjPVVzC74n3TY+zEHJPeNFTz685yo+Q1BePfJkOD7bpCA9Qu4JvUnRqr3J1Vc8avBkPIh7XL7adwQ9ILckPip0h73Q4ZU+ZVzIver5Zz1z5B0+sT8cPnkNkz2aLtc8QXKWPSW+JL5s2i29CV70vZBljz0LPVA+rGh3vVcGITwGqHE+XaYuvL1pIT2rtPI8p2ErPQaXU75ASOI9lsScPbHTbr40h3k+aENRvKmcLb7mW2a8WyDEPf7Pqr0f8Z090uKnvHHa3j0HA/m75t97PfBo0T1F0xE9bOyuPTeqjztnVDQ9Fyk7Pu1Ycb0QMHY9F0aQvrndGbyjAMw93CJqPYZM1L3LvE88/We7vJn2sT3YupQ9j8XGvZ++jj6HJgK+JyL4PYhDJr0S/e49rKRUPoA6Bj4pnuw8mycxPZENJb2qACi9AnoKPlWWzby4tmM9CEI8PkR4gz0iCgC+FdP6vaGbJ763tP29M9vPvRGHcz3yzui9lG2DvRCkar5nwPu9APvgvGNiPzwUZRg+6JllvOp4Rj7UTnS+VhAGPhtvHr0JJQY+qzsfPixskj0bgNi9oBYPPbYb6D38Nq298sClPSzl9z3hVqc84GgGvhnKq71QR8K8X6XoPW0Emrz6N9e9SvMcPj1Ksz0f2w4+FGgsvr0qH76ZupQ9P7zKPDsZm74vDN48mjLOvRhO9j2fi8U9ehlvPVoIFL63kug9ONeEvv/l/b1d3mK+hYGwvgeQ9L3s8MA8+RBcvTZ3Cz7IJn2+DAK9vfYe7r1veQ49EPCzvXPcgD308Bk8m2+dPWggn77ofWw67WPjvb1Ji7taW969de/MPcKzsr3NNvI9kDkbPVzZ37zQKn88/HPRveKeNL7efzK+mgzoPdA7372HFes8x3yBvSbh8jw/42494f0YPSzuMT7aKii+CatIvuAJGT7Rx/a9Ii2DvbR7nD7sUeg9lbSwviYixz1t8hU9D6SGvqrDAz6Dfgc+3iYCvhp/Oj0uZ6o9rTLzvdlePr2GrcU9fu6rPebK17zIcia+PdDuvazSQT0oGc691REyPlfVirz9MjW+G8DQvqsyeTtYwKE9BNwCvQKrGL1IsMm9clivvTI7Br60of49h8pkvUkbDz2cUEM9E0mUPoJP/by9oL67ymEXPpA+Dz747iA+p3E6vJRQQr5Baqe93x2nvt5HU77mEYc+4ybgPWl8ib2g26u91M74vUQv8b0xFSk9n2fRPVuXqry+aR0+KSWhvqig9D1Ft24+lvilPSOpv705uWm9XKkovjbC9b1Sv2e+S87wPE7DY728EEQ9oCScPdKX2jwjMuS9aeDxvUKZpDwalwW+eOVcPfsVnD0CdvS7ggBwPM7k/7yNaJw9vkdkvbe9hbzY3ZE+weXzvS+QAr2WyJY9XBx2vXi7DD2vdao865tbPauCqT12ino+olnVPaQsxz3/kwU+m/UFPf64aj4DXKS9NKWEvEGfrD1liVQ77TmUvcqqc71mTQW8O/QRvvZPr73HfSG9vwXAvX+r1T3ArJW9B8OhPRxXRb59uEc8O3ZNPgNDpr1P7Vg+/5VaPiVWSz1+26i8n5i7PXuqiL5xL7s8dM8APjCHOz1LZge9wxtJPeq0V72d92C9KJp0PYMqmbwKSSO9tF1Cvi20JD72dwu+5XXGvUGErDwZNFq8oekvvjpUib3L8fq8l7AYPkQPzL2xfPS9vmnQPBMai70EAfG9sj14PcO7pLwY3Je7f7YLPl281jtJj2W9dplHvo74Hr4EPHG94xB8vdsZJ76kzlS9gzE6vbjRUr4jSqC91kRJvjcoUr5Iewk+lgiRPWt+hb52lha+OUeMvMXlgL2kM9S7WM7bu0qmQT03U0y+vnhOvGz5Ez3gfCi+kgK0PPxvEz74Ioy9djsOPZdJIbz/Y60+WZn7PWKHF72yNW6+jDByPSCzDb14jmE+r81lPomXOz56Wkw9ZTcgvqD1Bj7Gz+26dRcvPoIKG73Gjk++qJ5mvlhODr6WGPU9Vzs9vpw5jLtzj7a9Qz8tPlsM7DsFgfi9nyOHPB5cIz4VSzQ94CQGPcohRr7YXvw9r86oPD4S9T38JA29pV6TvfWvND6QzRK+7hfNveDZ0Dz//pG+KktXvLItKj7CPBG+7lRGvgMeWr1L5hw+m5SNvbI4Vr7Vc+s9mIi1vLPPujxMPK8+megNvT1HZL6xTuA9K9wuPvX/bTyFapk9B7pRPWDjmT2oqWo+Q9xSvm5ExLyWs3g9I7sRPgWbUL45wlY8+s4Wvel5+b1mkTE+giq6PUvLHz41RQk+/9YaPWSWBb46REq+QbXSPMWYyTlLj/u9X1ViOz7ahb3o7kI9N2GRPq9llTyCP5g94IOTPec+ZD6uRje9pgsFvl65T70jawW+gBXXPQnJPjxcWD++f5uPPRjvS75uqNq9zbyJPcXuUb6kiMU9wmUHvoEZh74cWYY9wr2zPSDiSb0uvCY9wr4ZvvqLqz0b93Y+QWcMvkwNCL7Wzoe9SRYxPh0y2b0VchO8Ej+IvQ/msr2rsrG9wDihPS81Yb3OFH4+PKaZvTG3Sz4bjfk9tLT0vSAXCz5WGcs9K8wTvWgO7rx509Y9MLv/O22dqj3mcZQ9t2kpPlekXr2rOOe9YVctPu6Pqr0Xxiw+KHZxvKdCsr0e4r09/uCsPbXCPT7/8wG+FjiJPo5x5rwiV9O8NFa0O0NycT2du0+9xGwNvaNeR72ntDg+/8Y9viR3/r0LQfm8yaSfvPYVI752b8W9fdOJvTtbuz3Y7Vc9yzX7PZuXmL1ZLhW+gejAPQ63mb3VQCK+ciWxvVk7ATtVFnu+rdBcvVCpCz6gT4O9OBOzPddEMz57sCY9rsVbO2IufbpNGI0+wTcdPWBDmj3ohvY97QFLvcr14j3Bq3y+zIZePQKMnD2XD6Q86wGnveMatLzbxi8+3AebPQ6kZT3v74G8Z0MTvuI6xb0MeCi9GOlUPQg+Fj4cP5G+qhHuvRYbljwAfG4+dmQyvizZYr3ALyU+FTeZPXRWhb4N8YG+pAi9vTixTL6ti1q8icYOPun2NLxRJ9U8MAUkvqXS0b2yhaQ9/e2FPWRh/z38bYc9lk4kPhlpTL6gJhk+iLahvk7llD3Ax4o+ouJJve4rZD06ZJq8qJELvkVInLxJuEo9i02IPKuYjj0lMdW8tdJRviWvND4VBwu85yYgvm6E2r0H/tC9BvUnveqfATxlsLe9tnF0vjvdnr2RwFA+VXd+PJJrEz7/WxS+TW89PJ50u7wT9pU+9wZRPlooWr7otnS9SN0ZPv5nD74JeJO+Ri+fvB9Lrz0YEcQ7sA8SvTB2JT6aMhE9unW3vVBBV72Fylm9dXfbPVG7ND3esFC+tV6EPev4I77ZmV69038yPukRVr4Bt7y9yLtsvZS0HL6y2BY+XMOPvXwwFDspJ8G8+4XcPSCeTz3FqhA+EIsIvugtKr0Ff+Y9peORPfIrpT0I87k8DsTFvRcN5TxndtK8EpBRPfIbur348u+9yn0Ivayd9T1D5B8+z6DPvdD/jj2dvkY9ajBsvt5blb1aJtc9T/PnPc5B/L3wfYu834ABvnCqKr4Pk5C97SSnPemS5736xP68KglKvmDSEb1JLIi+gSELu9skgz5fHyy8v7KEvVx/Dj6tMre9PLMhPjLBCDzqBxy9RaEhPi6dyL1S1lk9LkqvvVRD4r3Gk0w+EfKXvF1HNb0HX4Q+QCOtPRj6gj54bx0+BDXlPSAG0L029So+ZHaevcxe7D0/i8E845MlPkL1+j3d9QW+Hhv2PUfWVr05MaI9nk0PPXKM07y2FWa8jVmWPe6q4D3c7QU+NL8HvlotzDx5n+49Ba+rPmitFL0+y0y8UZpDPoSNg72t4lC9599FPhVI1z3nHr897O4TPJz1Er7l6+Q7nRU/vJvPX77zvLC8fNmLvH9ijT0zxA291dq/PYnrYr0lFDw+c/GYPts9z73NoB0+uLDYPakcAD4dWLi8DLSaPLYcUT19zec8OeY/PjC/kz7gxoS9yW4avuh2773gWz0+SiN+PRh3eTzd4ji+a/8IvXXfGb1zulw+eIH7O4WiED6RBlO9p9LGPb3vxbyhzsM9ZHv8PcETMr5Uvyo+wFZxPtNHVj4tbtI87g0CPkOQID04ZAy98kDOvQYfpr1m1Po8CPdhO8T8DT5VgZm977HdPYtzT75b3ka9JsMBvW6R1T1dhWM+TZkTvirN772aVUW9dHzWvkRRBD6k8Mm7lQxuPnvq973dJ5u8DuFIvqMJmL4IHbu9hnEgPl22IL6n4pA+3vHLPZnQTL36XYO9PYkZPqPYkb3dNxK9SnRbPoFGBT7+QF88R4HUu4okTz5xYgA+hTUWPqgqOr4kfas9lCHyPVYHYT0Gd5U9GLEyvnYNkruqdqi+FFDJPWaoer3lnc084qQBPoUtAD7jhkG8nqfAPZi40L0YHPM9PnK6PeholLsPBwu+nS6CvTp3GTzoH1+7JjfGvesgQru0R6I9laTsvaKZAb7cw/y9G8m+O4+XzT2LkSM+gnIvPcJNar3MiRm+jcqLPWo5zTxYrAm9WMZOPgJXyL0W0p09p0oNvgOlPj1OUok93KgVvshrmj7a6x8+G35Mvjjx5jygWJ09pfAGPi6FaL2Y5cK9Zbi4vaHAnb2V59y8FZxtvSOpGj1etuu93IbzvNzH4TwAZMM9jUPjPYW0HT75SYM3IavdvOrsELwQ3AW+4LLavRZLVb56uQW+483IO8hdTD52eeE9LqNOPDloxb0xMgg+fEyHPSknxbyRSes9RpcPvrTOxjwkKsQ96BJSvp3JD72P5+m8oUVPvlSU5DvXggG9bC3GvVIsxr11CiA+0TYFvgbPFj6jM8O8xRGPPbzthL3GvQE+BV+hvcqa5z355BI+wf36vQaKsz20g6u9t5EOPv6cvD2rdpG9VVKHPNXPDj1LCya+sn9uPom2DLw8N9M9pjsnPtcHBr5FUR2+aXAWvn7ewD3yOMW8ALgBPg9t9T3rNW27KwNIPnkIQD260cm9r0fcPW8rUL11LJc9c72SvfBV9D17tgI5oaTKu1KWYr2/4Xo+T14ouxVvTz77t7q+G82FPDBUqryhlls9+PryPeXUA77aqpg+0V4LPin6OD044b87MCwePbh14r22hQq9HdUkvUf4hr2Js9E9vwojvUcNdz2v1Qk+mvvHPRKdMT58sou8EHB9PWrpoL1niP29uBwfPTYNHT19Iua8tY+oPQmlm73VGiu+phIZvqs2y7lWyoo9A9wYPvs9cD3rxIm9mv/Hvct+cr7GJse8DMdJPmhqobwc5bU9YKWOPb2wyD1uZhE+N5wqPoBDZTueL36+m2EKPnpLJT00MxQ9uIcuPR+RRb3aii++uCFxvfj0Kj7+YTw8gkcCPQ0aVLs=", "bias_b64": null, "corpus": ["Acme Corporation", "Acme Corp", "ACME CORP.", "Zzyzx Widgets LLC", "John Smith", "Jon Smith", "Jonathan Smith", "caf\u00e9", "cafe", "M\u0101ori", "", "x", "a b c d e f g", "The quick brown fox"], "expected_b64": "nyQIvR2Gw71a8fg9VyMhPI5R27tQUPy9CpRGvqX1RL5ny+09ohtdvqqvFr3VQdc8VchKvpxk+73jPQ46JIHdvJYfVT6Sfom9ofs5PiRrPz7lXe67cpU7vp0MO71qXR+99Pj3vVektj1oqQU+k10KPnirELu98be+26/PPQqj6L3zsIY9TLI1PcbHk71Yx487qKeCvRmvzLhpdrS9ba0APleDHr5v5Po65dlwvQcgvL1kHbc8w0+gvavm270EmRM+HpnsPRsGKj2vua0+RfQrPse39j2qmkg+waG9PbT+4b3FueS8eRtsvZa4hz3DTdc9doDDve+sez0+rSW9/wohPks5G74+m0+9vpFbPU8VML7vWuC8lxKQPShiBb7P65O+rZt0vbkafb7kBIi8o8+6vAH0Rz1OUJG+3V5fPX8zU71zq7I8VGsgPBeSxz3N6Rk9i2X/vI77lTzLz9a9ETOsPFpmrL0Md4I8H+8kPtxyo72b0hs9EMCmvnJ6UT7Ywm6+942wPeOP5jthnoY9c2y4vbsuJrxyqug8bUdIvNKIGz7u1IK9X0uFPS9iV71oxyu+bVnxvCmOEL439FM76kVLPdTeBz7h5/a83vH0PQ4Pqj20GSk+EMyIPJwwvD1pAR++o2WqvQOvMjyQWqU+LiLdPMR4jL5B9vI9tot3vdpqWT3AIxK+ADMUvmSBEz0Ytz++TJgtPZHWrj2ZuRC+upZgvrrDLD0JsU6+XJIHvu54Mb1tTLq9o8+GvhLr7L1EC8e9S+3yPdeFVL3nJsE9HNOtPTMXRD2Td5G9cuhpvmYwOT6eZxK+XkmQPPUwED4PdRY+B1biPQJ1Lb77/Jo9t6q7vd6tkT3NdJy9xmDePUc1x734JNU7tRq7PS5aqb0t5cA9Grkrvjnolb2NWQA9eLcVvCq/dj5E8729QcWsPfrvljz5Dos9QxuhvaKd/T1a1ng9xWgXPk/6tj01wGs+HMXNvennnL1dcdY99aqBPv6gGLxwqHK+BR8CPSgiUD1+yeA9AzTPu/vU1z0YVN48myR7PCz7er6C/w+989TTPVyV/DtAUaG7t7vmPZp9+T0POIm94ZtQPVsMAL7FA8Y8ljvMvUFvA76u3d89AUfSvQo/N76rsi69RMhavrBKLb4mhly9tnJpPiJOTr4Dku69xAYovk+k3D3K+q+8EquqPatXWDypLQS+9wyOPTc8XD1ioBM+S/AEvuUAhj3qm0A9fCJtPqUU673ivuM9wfytvRbzFT7YC2E+PoM/PlzvC76P+mW+cYMGPXNTMr5EcQU+iy6AvWgfLb29jYi+x7XNvS7pxLxradQ8z6SZvQMTkL2S9A69+2RCOWw4qz0Sm04+BFYrPt6kHD0K5zS8yKgJvoYkb74IhMc9f6WVvVKfJL4Dttu7ug8zvveaaTxWq3A89hK4PXGhR75xZFM9k13BvQbPJzzjIXe7SRgdvTrEYD7ZCp29atwYvm7XNL0sDK08trhnvZyJqTxdGZw8LVoKPn0V9jzMLsS80B5hPbMJzjybJU0+xd/SPXtVnb4TfIS+qSumvTRazr3mMg89ibdlvVO9UT7uPpK9kSKlvdeY/j3UF5c96WlgvumIFz6/t6q9swYbPr4uvb6gTwq8cjs2PlSqEr3moyg+JAK2PQtVvbxupsM8Fv23vMUPCb731+y9RdMqvjOxbb1kJY89lmJ+PWe4fb0Uv6i9m3HXPYvx873193C+Vs4APr0oezw24Bu+kOyGPZ47V73Xjcc8jgubPWNl+j21/i++9qbxOgAUB74irSU9207UvE3dMr1ZT8w9MdS8vEodgL4VgSG65Fc1vo+MRrzuKbw84h1nvZ/e5T3il5c9MKrqvFXOq7wFsLQ7i4JDPuM+az3Xala+3kxHvr2NBb605R6+lHcRPSFut73aN2Q+BEkOvR23Sz0Qquw9QCg3PsHdib7aB9M9zdPSvRcOCT4oVY++b5t3PWP6Dj03BR+9RqWGPkIyBT53XZg939X3u//QMT2N1gi+B7oFvbJbGb5ba5O9ZmHPPCnvBD516FC+fPsGvoUwMD4t98e9NBkxviAdJb1nL6G9tfnsvRJj6bzxdaG9VY3/vOYbfT3x0R8+bONEvvbeLj2ODei9iGaDPs0MUTxb8A++ZH8IPkyMx70NOQC+kH7uvZ5Axry/MCQ7tVyJPcIVSD19Rso9CfJhPN/ixr11SxQ9VYkAPSBjdj772FY8MpYmvr8/i74MYGy+LHXmvSzjmD2W0L+9AIbfPbH0VL1/YAe+CmYGPm3UNT5TAGK+boQlPSRTFr2nRwA9zCuKvs+4qrxCduQ90Bilvbm8Zj5qqws9xnOKPfig+Dm0Lcq8n+SCvWDFS70XUZS+zJWnvKlzlb35Lp29XVXGvTC9CL6ZmAA+qwHyveF+r70pV5q8aC5FPkbPN74c7YA9t3TMPU2Kkz2fzw2+bNfHvDq/E76/V4O+7oM1PQDPIz7nk0o9Ar9RvKojcj4hEk69CV0cvl7P4jyVwpC9mEElPZhTfb03Zg49JJiTvUeF973sYpk9H1aePDB84L2NY7c9ok8MPZ0hIb1P4d490DRfvIk/2r2IhZs9MpMnO+mnqL3AgaU9IwaqPV6goj2pnDA8EAJwO27Kjb594sA+sHflvVzof70A6Q+979ZFvs+CvT1ioBo+18cKPjT53rtScEK930lbPfvkAL6iihI9xfCEvW94mD60hAK+/3rbPeAHcD5sJFq9oF3gvZmF2LwPIeg7BltnPeKBeb0ymcG9FIn2ughE3z1MRQ09MfrDvaYfVLz4lte9H91mPfwunLyf1KE+KxFWvUsJrb1GHrg+1jE2PRtpCr4haA68tJG6vWc5ZT3bD/m9TVubPQY/tbyw7aO9pOKdvWm+zT2Eco69oYiNPsvsF7tIuV08f8o9PEmFhr1X/Xo9RaNLvRsd372qF8q965nuPclRmL2/Vom9sPH8OkDeWD2iKRa+zu16Pv2hBD3neYK9J9XbvUFP/73DVho+/gPCvDQmVD7pTP86akGNvcZP4b16HAc9y6zMPZx4GT3G5bA+Cb7qvTebk73nsbg+qB4BPop7AL2svNO9jvncPRqIwL32k0U7+PNJPQcCIr6mMew9SkpLvYg5IbxK48W9WIAOvq1GyL1mmPa85YRKvZcPZz3tZWK9FCIFPvl/AT6Ycus9s1+avSBMuzv+mJo9rZJmPpmpgTxUurK98ZfIvkNJzb3AID89md43PXEvHz5Bkc48eMWAPdLdBz7dqZ09Hgwmvk8pAb0i4sc9v1hRvewRQT6eNEq+kSEYvT/5Hj4+fD09JuKxPbHA7z1glDA9d++JvSW8770FOQM+jUU2vZWplz3XqBi+Jy6vPaJwVL7q0ou+Vn2OPSCNV76BHw++aGsBvVWsDz6nr2q8CMyRPgAAAAAAAAAAAAAAAAAAAAAAAAAAAAAAAAAAAAAAAAAAAAAAAAAAAAAAAAAAAAAAAAAAAAAAAAAAAAAAAAAAAAAAAAAAAAAAAAAAAAAAAAAAAAAAAAAAAAAAAAAAAAAAAAAAAAAAAAAAAAAAAAAAAAAAAAAAAAAAAAAAAAAAAAAAAAAAAAAAAAAAAAAAAAAAAAAAAAAAAAAAAAAAAAAAAAAAAAAAAAAAAAAAAAAAAAAAAAAAAAAAAAAAAAAAAAAAAAAAAAAAAAAAAAAAAAAAAAAAAAAAAAAAAAAAAAAAAAAAAAAAAAAAAAAAAAAAAAAAAAAAAAAAAAAAAAAAAAAAAABlXBm+f5/+PVtoXb3ZsZ8+UV8ovitIET3f7749bztTuxcdjT040UY8C7IDu7b+FL482JG8Wqc3Pb0EUT423CS7t7Afuy9FT76yXLq9yd8AvaCTWTwHToy+gaA1vrPfgD0vedM9Aqf3vUd+YL3o5Bu+bHJ4vv4R3Lsnc6C9ol1BvfI3Hb6EhjQ+nORyusVWub2yk6c9mrvBPYatjL39Ugg9cBtCvt3qrT2kkSG+UTE/vbAOsz4b4a46ink5vXHQo76LBAA+wkayvAXpSL0SkuY88IGCvSDFS70HHt68XEFcvqLnND2FfFM9r59TPWfoKL33sai87WywPSI9fb0mqaY8bVg9Pk1bd7xtoVk8EeEtPgSWpT7glsC93Bb5vU49Ar5UYFo+mtHmPSJDfD4fNpQ+9doZPKfsOj5YEug4O5NvPZLmyLxO1ZE9xNQBPronb72aNE49lORqvi+Mwr0ZUb28IucKPdaFKz6zi7+86JtqPnukCr6t2Q28pZ8BvJi66jxH8aM9TKkCPpoWWD2w4VK+QhkJPubGKL4wUeQ9cN2/PfZXIj0TKNA8ZV5NPipva70PApg9tcVQve90FL3dmQC+cCCKPXqtQb3ZXiM+IrZhPR6eNj5H8o68Z0iJvEfoO73UY/09/LsqPvyOsDws2gc+oL7PvQv4Mz0SGM09O8xePeHCpL5RfNa8OHolPsknmb2ZO2E9WUD2va9jAbz7Ys68P9umvj6jB77wd0i+QMZhvR1nlD1GaFa9XOAhPaKKHD3s93M9KSd4PcabqDynaCO+hU5iPVH/EL4cJoG9xVD5PUYL771IRRg8VCnaPCSdpzwX9W69w4GePModDT7RvbY85He0PSKldT2Xtna+mhDevK8UlT5znUS88KqKvHKV9D2uCHS+QfYEPvxfaT2siUM92KqSPeuqvL0V1QE+jFUcvhsxrT6HvLu98cQsvQ+PLbyhfN885mkeuzQ1Jj7DH229HhoNPsMCxjzIv/Y9yx71vbal873lKAk+lH5JPeOCBD4="}, {"dim": 64, "use_bias": true, "featurizer": {"n_features": 128, "ngram_min": 2, "ngram_max": 4, "lowercase": true, "boundary": "\u0002", "seed": 0}, "n_features": 128, "weights_b64": "GT0hOS31GD3MWwy91P3jvZzKaL2M3P29I1n2OyyMKz5+Any9cdeevZTMej3luTY9beNXPCcz7r2FoW+7ZP+xPTkPLL6dTGq9RFtzvpMPJb75vWu+u7vwvLA7Ir4p4wo9W4OgPNNqv7yXEqG+x+eJve2oxruLDmg8fdtDvhScdL06gPq99Q/PvYfLBz6Yus69ezWFu2Bn4j3XZpW9/sNkvAY7YjwFoAI8oc4cvmnvGzzt7S0+1ghGvoEA3D3ib3Q8ZzekvdMGgD50I8M9TIIZvvebGDzuoZM9GlDBvDXTrj08Ogi8vNCqPYIhOD40+Ky9kQPQPKc2bb2nUoI8/vUXvhxNlL2Z58i8ZBXmPaKWEj5caSm+r23LvXabpT2dB3++miRtvV4+R7ze5SA+xnywPYSIJ737tTy9nRkAvQMDQz4WJlu9/3sbvY6GND1/Vne84ATKvMGZDr6KxLy6FB1jva1DFT7PMKc91MhFuwUbqz1iAy69FKwGPszuMLqMWJU9/TslvgyAMT0TF1i+1EKCvmXkG72oYea9df2nPBiqjz7P69S9xLqfvWlV0jw9bHw9y6O0vGff0ryd1LM9qxiFPX1PBL7RKSK88YiQO1r5Br6hCQU9CaPbvV3Z+D0vX8U8UuY2PKJNl7216XK8J7Z/vvbREL4jxjk9cTqIvla72D0XgF++nbnBPX5y2L32a8c9ExiGPAK3RL4b5B8+3Ik4PrnEBrzBPgy9KrSjvJWj+b1+ngw+9/qKvQqt0bt5Fcu9VEagvX+MI76m5yA+IsmdvKRG9z1pT9o6bsSxvUpDJ71Na4+94maCOvoiQL1Xjxm9I3UwvnSNzr0ouFM+8dWrvYzsBr4Jtiw9fyE0PngdOr7AhtW8Ms6hvRZpYb4oJLw9dg1AuxpQEjx8l8C9eNloPWQPir04VZK8fdsNvkGpG7618io+ndGBvSFXFT3XZ4q7yd1hvbsJgr0YTaE9ZI4avQsUm7z8CTY705cWPvg1rj0v5EM9N0aQvVrkML5lFPM9FGn3Pd0VkLzmuIo9pwzIPYHI1D3K3+s9t0ZpvaLqQT5dkB++4pncParkfD2Bpd89WINwPk8CPj4olRK+ZCZYvqQf0T3t6wG++T/LumH41j30Z1K+6wmHvtfCBD37zbU7zbP7vKHWnTvASty9L7pBvpKnqrznwfi9mV1SvlF0gT0hffu7giRQPW9C/b2Kdqi9ScH/vfb64r0DGcg8BnHIvVJONj199C09PZyBPulGMr6STeM9d0U3vPTc5bojlTm+hp5rvS1Cvj1s6ii81f8lPNHYFL3xyBM+Pecvu5zTjL6rK7G9hwF8vpEX0L6ktYe9F7IqPs0AwTv6FRa+tdHwve+3ED7gaKE82prEO8D62ruYSZ07ES/OPQ11jT2x4dw8tnwFvgbYgj3RKq+9IwMMPsuxIr6D7Iy8xx1xuvyNKb6RaVw+nO46Ptpabb2Fj8U91OFBPY9Ep74rNAA97kP7u9xtKjwK1wm+2+cJvXeJtrx5Exg+BjorPfkGNrpKtUM+uiSOvWljR71ui2i+dthIPnze9j2Otuo97jyrPZWVYTwiqdw8AgcBvaF80Lx3bd47oYNBPpBBjj3jc++7ClOUvUOPor1wJU0+QraBPfJXCjy/PjG9dvUNvrbuCLwOqN89pPpIvUiy6LzUVuK8A3NgPMjnS75EDPG8qrnavSp04j30RcW9VrmTPcQgQz6wjyC95wCavdEGxDxv+YS5pF3+vaH9az03/oA+QScEvce+z7xVwAW+kF8jPeucH77qrw2+I8wjPsbL573taQo+Kh5DPnDGBD0Pq409XON5Pixzybw6z5e9rTYtvgvVqjuZVD0+C6j1PeQs8b3i+dq9XhGBvSmkFT0pPdK80ZnbPDnuFz3a+Bi9bo2ku/SM0zxP+Cu8vuaAPdt4bz5/i5c9mZnkO7zSV75QokY9wix5vjtbNL6jydo90su0PZyJmbyl4Vq+ZSE+vcvBrb3/B6M9qH6QPgcj3jzvgMe9otQVvh7D5btGCbW8+2QTvqdLbjwiURO+iFkOPu8ECD4h2Qo+vrZyvZ+3gz06PYe8YBJHvYCkLb0SXSa+h9A4vjdYyz0308O8ep7dPAw4AD5J112+wLzIvfqKszymwEg95w9BvSW8Az7Fcdc8G1AbvolG7r1aM849UXttPXAUc77WgSw+TRiZParyKz5xdES9zmYXvb8vEL4OXaI+RqqzvEo0Sz71tKW9/MWnPOHuVb4qB0S9Xdf7PSQ5IL7BPgk+b6osPS+gBb6uaIC9qAprvcrUyru7QIm9JMnTvevyG70fcQO+NQ8lvrRUxbsMBOI9dMJDvgTp5TmHY6a9NCb6veR62j3FpoS9Wcg/Po2jx72X40U94LzovJMHwb3fcZY9wLOevAJsmj29tMG7B/wKvq4JUbzyztQ71F31PT8B6L1XGKG7hmZcvkDIpj0Jbgq+yjZnvlqN8rsWhw0+FCFDvsBEC75DR769WZMQvl9EQj2ir869MbW4vYFTlT1oacG9WpVdPbOs+L1bJxu+AfBqvuU7bj7++CO9q8n5PIpbfrsEzaM8DYTLO3VAdD6M+wS+61pHvuWHAb6/1yq+6Di/PU4E0j3HGPa9zfkxvuinNb1ZEDI+03O0vgPRhj1Zsgm+wCoFPmn5Cb4GIhK9wc1AvpIt+r0tYzE+chHSPXOnTb2ew969Rmhyvl+NSb3RKH27sSQsvPsVQLx1lw++mroHvPpnnrsjMSU+H/FuPtpGjLygLMS9WhUFvBGNm70kEL69JDvwuwCLBb7QKZs9rdFUvBcBAD2iVLu8WS26vXqt8r17+PK8j3uMvdWD7zzSNxG6EWAuvuR2CTza4iu+etGdvYS1Fr1H0YS+Qmg7PGGbmjwY0aG8HUBZvftIP71+/vm9KxYKvfh3jb2NxTs8IiEavns+8Tz5p5I82fWQvHTfYL0mZo09qxFVvorAaz3Q3vg8sxYRPYxBRD09Vae989cEvUEWoz2/fFw9g6zTPD/VQb74sok9OrEVPuo8AT66fe88A2JHvp5K8T3ryZa8zRSivlQhQT18/z6+xPElvqqMor1F5CI+cd89vWm/Cj1qvV8+KwlMPvWqU7xJUfe8NWQhvgHIsb2SyFk9OZ1KPZXEYTxSq/496bnFvX6w5bu+Mrs9loqVPcAUCT5CRks9A2oevURxOT0KVQC+ztlRvuimlD3U2uG73ucdPblNWb468Dq9PJCZvQE93b0qUpC+iXQrvby15T0iEkM9o9eZvVm687qmvcE9sKqwvgQNf7wqD4s9+5+uPYexWT4tSRE+PAggPZmcGj1Adck9VRGKvTucpLtI/+c9kY16PvgWo7zNP8a7ZD7LPBnuKz6bU3i79RM8Ptl2971MgL68z+vKvHBYyT0YywU+eTVBviZF6r3udyw9JqCovereQr7p7AQ+pul8PcOBfD2fbXO9QbQDPhO49bz+Vww+42LpvZ+o2r08k9E8CsyzvVzqrD05KgU910fsvY86FTyr2jO9BXTqPf7uob1M22C90AkbPh1Fjz6E338+EXsBPHMb4DxgSEQ+rdd+vATy+b15XG88NS1nPSZD1L20t1K+weY3vpNZqj33JMK9S72QvPyo2TwEgJ49YXgrvapXfz3+2uO9lTI5vQ0gA77A3RA+pd1du0FDvb0UajS9ygzjvERVsz3OPUy+KcMEvkaXQb1MEaI+X6f0PcdAZLybRbY9Ca2DPpFa77yImju99yAbPpIEfT193Ks93RqCvUpMdj7f01o+9OGQPZ4trz2kvoG+80CjPWfExrzkKF49qbWuPcu9Lr21YVi+Dlo8PVLLvb0zDym9KMGavdLiLr0xz5O+7MQbPpW2AT1VQg4+dWt9PjYVOTs7tma+xdXkvdl7Gr7beoC9ex4jPNYjgL7zWC89XlNBvkJAGD3lPGC8RpQgvZmXFbzkLoq97sqcvZBkV778tHK7czpsPt2AfT5SMSk+aq+0Pc0trb0PrDg+Aublu5oODby5GxW9hVY8PH3UXr38lSu8JdQKvtlQP72j9JE+UIcOvG9j9LyuSYg9eUe1PfqPDr5vIdS8IBTrPSgoCj0Lw3k8DepGPoSCrb2udik8kSKFvWzCPj6Q1nm+aI6rvdV2h7283ak93zSbPbqVMj7oeUm+IR/APccoFr1qZqq9KiGKPUWO670m7IS+R409vfW2P75ZH6a9bTw+PW6+Hz2FH0s+S3LMvDZERL6Qj8G9xFzrvbLhG75z6F498i2lvY0afb6IabI9nTNkvGCzNj2KhFg8ILShPYy5mzviOx4+WJdZPRa9SD0U2lE9G3M6vkaWqLwixQS9IYfUPLHpLb6sKlE+uclVPHQMG77PvFq+4wQQvb6nN7z94be9LaY8PBgkpL16OY09k3u5vWmynbs0lfo9OZakPnT6AL720229ef/Wvb7JyD3r9BK+pv13vWR+crutivq9QRP1vdiEc72dbYa+bgU5vjR5U73GyZc83je+vGgRY75mdW29aWbMPTRNjj2PRiG8rCrjvWWXoT2xNJS976kVvhRczb1hYzk+4HbhPDViFD6Sa3W9jirwPSv8mb2kNKG8XSCfPtpjxD20TIC9m7UtvMIGJz1G8Bo+p296vYvjXr42LQ+9SRP8OnFVYDxNiSg+zyQiPVQb0D1L8Qy+yy7ePXcohj5i3cU9DtIBPRSvnTwUwWQ+xFvtvaKJY7xUoGs923a+PXHpX707WR09uUsOvZK5djwBQ4e8vh8Svmb2LLsBjeA9g473vcHg9rwHL6o9V/EIvosFuzxVsge+kjsRPkQFlD6hbIE+5nDgvLF9vT2ozXc85RxRPOccRj7g2ii+5RMHPg6byLsPSzQ+G7q/PDs0rL1Y5Q09V2i8Pe58kjsn4Hk9gYyFvY6RiL7yZ+Y9IvyyPRO8lzzWGgw8V6UEPuUJar1r37S9OBPBvFY0GD7qjDG+440YPhOmo70q5Qy+tUkhPlBuRrwUbia+3Ks3vXRZ7j3jlRg+rqxavUYJUD1AzrY9PgalvUrHNT1rkoK75TiJvdD6e71gSQk8TY90O/PDkL16FVq91oEOPoD12jyLleI9UNUZPl6+lj00VpE+IEfTve7zzj3E4yK9ToptPgaoWT6YI3q+ngf4vWkQqj29NMo9eY+8PdchEbyZBWk9aiynPfl6H7yifgM+mpuQvktAoj3WWwS+6Wv1PUAs6ryQh+O9GnA/PSdN6b0oq+m9Gp1IvjnKWrunX349hPICPhwhkbwfIAY+5SITOwgOP7wF1ZI9ankHPn/QLr2mnPm8/bCkvNyCKTwngea9tJUDPn4CTb1kxWw9LFLTvSe1Nz3hfkg9jmNXvUFWgT7z+D09aHJjPiGK9T3Xiqm9/q1DvcVIXz0MkPo7xJfKO3WJEr0nfGe+0dfmvLT1jb4iXz497N65vY0lt70tkeC8tpsLPfpLN74q0l++2XQIvqqrgr51g/e9DqJLPjU+B759wqY9u5EvvkcmGT0mtCO9QP70u2mbkT16zGA+GmHHPOivfjygLvm9v1WVPWP6+7xq/tQ9iQWzu1zUXj410H2+39sXvcio4T3tjTO928vKvYEhCL2BoTC+CZ5zPIcwnD5kkBI+A/QNvkiT3718OE+9tZAAPvlM0r0Cs7C98H7iPd9Z3T2jZD+93xIPvgpeRr4E8bK9/MCOvjL0vz2xSaG9IGx2PUUlbz65JBY+Y1gTvhqH3j2pNBQ+ORG/vUQL9L0lpmC8cftMvgtBPD578Zm+3qsNvnIECr2Fiei8dRyqPE/7Cj0cvdq8foURPorriL5egay3Ae+2vZqxhzzeDuI8nm3pvTwVpL335so9gbcyPcMkrr2TjYI+kcmTPvgxO77ehBo9XZOgPpWtyD2XXeI82gzVvLWLir10ndm8mvyMvVCyvj3M2ku9nN5hvWfgGb7BHsu7KOXkvZIWubw2WgU+glo7Pa01gT2MUTY9QGLyO1VigrzHmB29flXCPV/ICr7MnCs+cJWLO9Sqv71bcXq9Pk+tvSwNpDyQxLe9WzESPn4ZyL0AcZG+uCK7vZyLgL6FTaO7fZIHPpbTpT0iNiu+KiPDvUSqYz7tEyM9GfYGOg8tBz62+Zw+HfYlPt/CjjywmTU98fidPc/ZnL0fhAe+2tTWO2988r0EwPu7KNxEPI7TlT5q3tm9emx5vAQ/qLwr5189EPsFPqcge70gRNK9zgJSvr0b7b0wVIk9ZPi6O775Ab5h2z69x+mAOxrxgD2x6Je9rjkAvXjCaL6cYBO+TxFPPn8KjL519Cy9gHXgPLSqP71p4869fC36u8+0IrosLSi831hwvvrwlryq6Nq9aziMvRNs6DzNBqQ9M5PlPdopfr1yi+w9tDwWPlp9ET7q4zE+yy2VvKNPsryHNtM9ReouvpF01jy30oe969E8vfLpXr62+uO94+Inu6tx4z1icv09NYIkvM/Uwbxkp9S9rAFOPRaF/bxAG5s9RjdgPpqbhLtQqT++smDcvZOkOr7kOhm+HBMnPnIZ6DwTlUK+cFSnPfdTIT56QTi9vA2tvca8LL3ytxE9FdWjPeJSFz58Mhs+ULsXPnFTLj62UKk9v/RDvn0bhrwwuiA9IClEvWRI6T33bTi9wv3svcreOD5Cf6o9EITgPM887T0fAQg+P5wuPVNKnb5u86y9vcRpvZf0+70Zcss8FJoYPotFeL0yQhG+U8uBPtQiZ73L0R2+qmHzPBHzWT0qfrS9KlvKPe+Beb2DRuy9huC2PB5RxT0XRKK9wUcpPYt4P7yFw7Q+K2S1vYksMT4Qada75s2BvAu/uD2R3OQ9ki0iPgpFKD2Us5m9LaOJvaJ4gj3btZQ9VfMyPoQ8Vj2Yswc+jiVCPnnBqDzJJj6+jfIWvu0JOL48uUs+xe/YvfysHT6H8pU98I1bPmFlAD6Ap1G8yNTMvGpsLjybd7M80d6HvUClhbsz/k0+q99Zvo9YBD0PLui9poa/PMoA1z2n+Ou7eeLFPdx/S77SsQ0+rmaavSNWnz2s07o82nmlvmuNwb3yzOE8sOhGPtQUEz238AM91dI0vtEvNz5NTmc+NRZqO/4H4bwFPU++VCHiPSXyrD65lLc9CcEhPjzGij0AKvy9FxgrPo0GHr6LuNe8qMUOPV4G4j0T/FQ9LA9GPeLwwr0fCiW+J9P7O1PPtb2FZSe+iQoivh/yer1OIW2+23ksvitMUb46oro8T+NQPf90gD4Orz++Efqtveag6T30+d28RmwnvRPGWj6SQy29Mv4Tvn2RKL4g4Cs9oUgcPfGTL77uQvy97eKIPcHHkz00qqS9kEmfPRBlkj0GPGS+0sYfvVeLVD0XtZK9QuSIvk7nEL0ticA9u0pKPsg1jL6oQKc+AUYQvgv89D00+h0+Bqf7PZY1mTxVqRS+KGagPYUZt73Vc6G+rQy1Pi1GtT3Atmg+HWDpvSLXOz7VgEs+e/tGPue4LbtH6hm+fZG1vCv6jL6L21m+Zko8PErM/b3CZKi8QztfvBAidz6hGCY+Ucy3uzi9Gj5Im8e9xH0svXYE6T287h6+kNYOvXoRKb5glXA8R/ZQPmyJwL30TOc847blvWskE75RMB6+UTU6PiUylz6BUXc9+l63vcdztD10LCu9cSjNPR79FD1iNQ89cnabPbJZlL1NCU+9x1FcvrY8Yr3/Dja+TyeUvE0n9b3+U088+w5oPZTGNb4PM9C95HzxvTEavz0Salo+Tv7ZPQrnMr1UhTs+SM5BvvfqPz6n/ae9U/CxvsmmqT6p/Ek+xBQEvpoQrTy/pdu8JFlRPFTcPb5kdq69n5hvPXcK5DymgBk+GlQjPKZZlj4vOre9N8cEPehJdb6rZiC+JA0qPoZb8b1U2oc9cAP9u8izBb67TTK90aSDvQWIeb147MA9DQCnPSzSk73kN+i9hY4QPeHUTLzCngM+VPCpPuXJ1z1UQY67SyywvE5Q2721G+i9628Avl9pSr2Mslq9I2W+PZlJTL1CMMq8Z/AbvnSBUj7dyYE9zPlkPrUAzD1krD4+hHP+vNqXtz0EJ60+x5wcvvuPFj48Vlk+CZ5XPfbkwz0QyyM+d5irvf22VT1LVOO9kfWwvRmuob1ax5W8yV6ZPK8SbT1gtzm+sLaBPuB9Fz4hWr4936k7vf3+OryaqI89+8ZXPcZLXL4gYMI9cz+/PlNXcr7MhAI+A8tBPYdSarwXGTQ+IFcbvvMaqzwNQEA+7PLOvF3IW70LnnE81ttpveJpSz6Tje69Sp3lPQ6yJL6/BLA9+MVcvCzuqb6BTEm6aWMMvkTfab1KcEo+tAQTvn+DC76SjT0+hB10PHbYSj6ESyo9ZDXovVabC7z2ziE+bK73PeLz7jhzY807WvRsvBw8mL1PMX4+aEJyOjXaFL4CGHu9li+/PePYqD0NYpC8EvCvvXJgSTt9P1y+G1Irvj5H0j0xTHy9Jl5FPfRUID5Q/Ko97ZUtO+UHjD5jvq89jJo6vbywwD2VtFY9w0bhvZKhGTz3sa28HWGBvmiBtbw1BRW9M7pmvdx1WL5oszq9GCCnuwufVjwKbBW+QXWmPTv1H77tj+u8ebsrPro1tr2DZoa9rDoNPuMXSr2RShy9t9DoPKMJCj6i75C+WubZvQt4BL4apQ6+a7bgvW6O3L2RUR49M4HpvSqZgDy4pVI9aoC/vdYWiTzyuFY+1fwoPakpp731Owi8+BzwvczkDT0w6OE9hIPWvRgU27zskhE+HyyCvYW2xDyd5wW+mDfWva8Bhr3USIs+BW9RvV+rh71zLZC9qpOpvAnrpz3ICcI8PLODPu7s2jyKRDk+FK0NPWQHmz3ixzi+3xuCvHk0Dby5yfi8w8iJvptw4T2ROEa94kpgvdWlAr2Xjem8NG9QPS+xIr7GWO69480UPakTlTzm2EC97OuSvduc1b3TBe+7PiIXPjVuB74W/EI+Kw/YPd3qZ72Yd8g9uaI7vj+kXb6WFyW+SspRvSOcJr1g4IO9IJ5LPF2miL5wnn09pKs1voEtqb0jYVO9tv4Tvut8L75JxwC+YVvDuhIJlz23cZA995b+vc2kyr2mrOu9zU1mPRhlgr7ngR4+WDh4vRaVyL3jzC093CwEPhNnLz1VwAY+XJWJPMxkHT5nYR8+ibtLvOY3OD70r6g8E/UxPLPl67352hO9qg/HPdAEKL7CTaY9yn0yPYgcDj0rN42+BnFTvF70pT0EUcO9uPI4PFoymL5q4Ks9MpWpvUAR3z1s4Gu+cDixPTag8rwfv849UfvsvTNTnr1ThI8+vnfUvTO+tL0pnA29NOMCvuNgGD48zVw+TEC0vZ/uXL5aAxY+vt8NPkJY0j2RCBQ+IxbevVOKrLyBKjG+XIY1vnUp+z2CAqy9gOSRPr7rFzzh8qO9NELMPcSPZj4o5ng9assbvhT0PT2ZEzA+FIp8vWYNxr33GgI+tFOPPBogDb4mbkK9GXPBvYewFz1GomA82UETPpystT3iIUi+EGFQPVud5T0CaWk9/9gDPhSxjL23afO9EhnuPSVhCL7dNYq+Bz0DPi9kub22tBy9/fAyvuOqKb4aCxS+Gac4vYVwPT1XD5O+bI7APbdLF77nfAi+7oetPa3ZGLzdqUS+nRtsPrNR3L1lQP08DrDMPF6mND5tTWm9FQkBPnnsvb3roQ8+9lLDvXlzOb0Ir3I+E0oiPVDJYDy8fY8+vgM5PWDu0L2VELw9UkEXvq1sED57XRo+dK2SvS2+oL2JvbQ8AuvnOrxJ+r01bpE9F66CvsGfXb1a0U69dukLvXRMHT3XLx2+7aiWPUt6uLyQdKa9KfQuviBwF759fDg90b72vZt6AzwP7wc+oi0EPha7Rz7Csxe9KuYKvpSgAj5lhB49nd0PPoYktTruChk+2azYPVxntz3g5oA9NJ9LPfCg7jz3U+c8ZX39PRoRg73uKl4+sZVZvAJC/D1f0Di8A5b8vD8Qgj5xYh6913sjvhfOtr20ayK9qu6JPtS30zxhSe89bTQAvhOJND0B5qs9tptmPsg+sr1Jfpo9R+waPYzHAr6vYh+7L+YGvcrSlL5hQpk9ZU2KPRC8YL3/VSu+vGw9Pg8xCD1FIwI+bYU0PiZahb1c6c89xO/2vIEZALw+Vy+8COAsuT+WDj5KmX08HmydvEqWDb26wC49ExblvTmugL0qJNa7b9uQvaCjcrzfW5y92ECAPqoeKj4hYGY9F5/bu3s1jD4VWiU9D9wxvGEzGz2XpBw9SoU0PthbG7tXW4Y+JczhvUatsT3cOwC+xJZoPuA/Kb3gV+67yprsPQGvID77UQ6+wDsxvdmMMr65mYw8Z5xPvHunMr3cOK+9iJVFvcQTv70Laoc9pwpCPvghd75hgG28nBpWvbwXfD0Bp/O9RvOVvFsRBb7KWrI9f1BLPJdZpbxGiT09H2b8vJvjRr7KgZg9JpgTPQvHnbwKJPw9qvcbPuvPC76a9Me9cA1GPvCcNT5VB729giEXvqE3o70dCX+9q8JKvndSfzvn3CO+DO4avvOF6j1+5a69fF8SvHUMoT10L9A9540svYi0tDvPTdO9I6pfPhxjpj32Ng2+tvgEOlOrtj1bdXU9PyJqPieoLz79D4q9RKQ2vIwJJL6acP88RKWaPN0FrT511Uc82feFvtwNrL1YF2Y8HMUgvlMB3r2eNDu97wEvPWtPqby+pOO9eqXJPa4lir1ppX+9bJgwvlQ4yb2B2qY9Uw9PvoTDEbzUvLc9YRRBvaWL9Twb8w6+MLcnPjjvDD6sJvE8baZgvhjiBb42Cfo9jUdbPvvdFz0mqB8+RZabvbXuwbxBdRY5I6BYPQiwQ76Lz/A9NUkpPsEJE77Fey2+nnwzPfyAp72su5e+VP/OPSVUnzwTC3S9rEKHPus8jjzL4MC9rihPPP0gBb43/8K9WNFFPe/fjb0T5ma9/J9VPvER3D3+hc09iGCHPUTpdz1gcTo+5x4gu32BbT4Pj/O9TZQCvdh1ML4EAzC9pbiEPXXCOT7Vz6m9JtEtOm3qN73jFL29lj0Yvth3+DtOtF2+c2RiPGWjKztTYqi9SmUBvvswMb6wh28+vsUrvspiRz5mpJk99WA6vRgbFL5tcAU+NmVdPjkc770i9Ri9nJsGPszrKz24/n8+/fSRvZnTij1oHiC+FyOGPp73ur1VT42+SciAvOfGjrxzMXU+xXktvbUnz7qc65c96wpLPod+AbydDQU+MaGEPSisF73d1B48e+VqO5eA6r3kWRs+AVwxvt3oFT7TVPQ9nJA+vCn0w7362+e8hQ9yPRQ5vj0L5xI9pvz9PQi0jr3MNPA8jr9Ivgl9wz082pw8I8ZUvWytFD7cB7E9zj+0vp5cozs6Pjq+UIgIPgBNnz6dvoS99LwYPHmHAL3HnTM9KgGlPcXCJD6lx/y9VCtJPrF37r2S3g09PUwUPjGUtj1zRvC9RLGzvaO2bL3hltG7Xc8SPhRaJb6A8249JyecPQLsjj20v249QFhCPgTCeT2uYds9lUSQPbmEZT7NLHO+IhwkPtOlBb0fug+9oS/4vWoxb765h0O9dPKvvV8EfT0Zczy+Gj83Puo6Cz002v28xZy1vWeGyb2yphC+OVuLvY9CRjrEnrW88A01vqQaCL2jp+S9KLijPOqsbj59AaA9QlEgvSz8T76wFTW+jeZXvhLZuT2W28O9kTQAPFI8n71BxTo8KGozPp5Yr72zkS69jmzOvSTk3z2zSgO+mAURvvGeMb7cSDS+EBlxPYtspD770P69gpjzPRqRAD0TDw2+kKsNvbaB7rzX0bC9IB53PsL7c742F0M9lL0pPbphlL1HF5k8uKrgPZlmnDyqq1U9rWKxPTUNgr5/Oz0+u8+RPmIV+z3DvwE+cEE0vpOKcrwa4s+9XVKWvbuP9z1uzM29RjmFvGBMdL4APKK8tVo4PCJttL2ASri9TnZxPufYGr6fega+TxvPvedyGT6sf4Y+9BIqPSeit728/1q9xUsIPr876b0o+jk+b1I1PjjJDzzGaKU9Wu+/PVvwRj75lQa+tzEXPuIdQL38i8S97UVSPBJ927xXzPy9U3VMviIt8b3X5jk+ejV7Pghupj1ozBc+Kk+EvbMBHryKxhA9smcKvvts/b3lBEc84P4jvaEiCL6K50U9i8wGvbq7Aj47xim6xcEZvcK8gjxuHLC8EQWrvTDNTb3t2b89H4KlPR2jJD4HtFi+LkNJvThDVL0i5a88KIFnvfZfg70Lccg9k1y2PGtLFb4a0So+JCv/PQXvkr3LztQ9qDO8veMWED4nD9+8FIfNvYoHP712DcS9QsDEPMlOszwhppI7Wn6OvSpP6r6ZID48z7dyvoMM+jzZvRA+vToMPTxkR73WMbi8kkGIvBmbjL06c5W9coTsvbMVGD4o0/66NM70PbEGAL2vzBM8yniuvNn4bD1lntM9IXX1PDd/rL0Oq8e9s19UPhlhD71XCxW9XYU7Pgk/Cz6aqYg9tH1Mvcqalj7cM0k9PgeMPXI2r7wHCDW+fNkqvnJfUD3enUg9H8L1vLz5Fb4/iDi+C9wnvWZiOr5RH+Y9hYoTPuUOtT5q2eA9/sSXvXAl370d6dy+qEqYvaQ4tbw3wvc91JGcPReelj0ywdo8ZjGpPfVKOT7jTQi+RyNqvWe7Mb5DME8+z/8lPrKVwD0iahm+cRixPE1F8LyniCU8CqLAvKEbhT10KEq9IsXaPTcw9zwUDha9YRNlvKyUYb20WtA9Zf0KveD7Fj1B6Ui90Rc+vnX25z2xcAe+ft2tPUQeVz3n+FO+p9bxvRmcg72UGtK9GE4Xvul2vT3nQPW8PHlFPZtrXL0HVBw9bUvAvbU5WbvZ85Q9Rp64O1oKar3jFwu++qerPLKcMD2xRwS9LfLEvbnmij2s1J4+TNwavR1pLD2nOUE99kCkvourfTxp3rS9dT0xPm4KAr2WDMe9Sr7fvPuOqjz5VY+97bTXuxxVLb7XqOa8f5LGPdYNfD4p3rQ96joLPaSFFz4ncgI+zPhUPniUCj52YnG8P1MEPQx2tzz9sRo9+SDNPEFNyL34oYa+IfOrvY2qgb4lLgs8+6UUOjp5Vr7KK7A9aerdPfFNRDwXdlU+vZJvPgNeGr7BsgQ+0LZhPQIuVj30N+89YRu4vbill73JoNO9SEHBvYXASbxg1Tm+ZdoFvuXYkz3mVBG8phJEPUrTcb6cqsi9LjCOvTpDhTu4Fpa9J+fuPfCy7rtIYQs7N8/dOok+tT1FeHG9maoPPs2Maz3cu5084fOqO6QyhT1a+AE+GA7yPb5wQD2kcOA9x2VyPJlRID7k9Vm7Fc+Evrw/Kz4I4Vw85uUVvij7yrzrQuK91WmGPpDQfj2Hy0i+cdGLPaUnTL0oWXU+w74GvlXPj75s5gY8pDAyvbpKVb0QCom+wYZaPSwwVj64W3S+qOoVPm6Xkb0aVpY+bjxfPUZawLwmfQ0+zamGPTKrl73H0LU997yCvSztZL6bBYI+jvwyvVfom736bC09BKJHvhFCLb6x0X+9fQyFva86Ezz5rw8+qrNyvRVQfD3a/pk9+8IKvkzw6TymUvG91i0IPooBaT2jMwc7R3srviyMbTzqW8S9+Lm0PXRhdLzQ9c+9vu7sPYa2uD1R4pe9VL0UPjDHGL0fSR69Z4t9PJuswL2gHmK9rlSkvFDgQz6G9D8+o4oEvdMiTj5yTbG7eNtCPSgy4j1LhxU9WJKaPscv+TybShm+rBknPvz5Ur2uyxu9kne/vk4gAD7ihdE9iozMPc94+j2yclg+b2y8u6MH8D1JbL69biU1vetDBz5iQUg9Wa0qvioAOT0jTbu8HZTRvd9aXj1fG0+9zgVJvlY6Dr4qdGI+MelBvkIm5DygLJw95aGjPUHcHL6noCS9IDqQPITazD0nHKW9vOwUvllUAD6tdQ0+Jno9PXrZm70QQ1A9St5fPNVu1j3v4h++IRpuPKLhorweCg6+5dLcPAEGjzuIGlK9SMRKPSSbNb5/t9u7UeJcPcpqET1jyAk+D74ZvjoCQb4tzvQ8wQlpPTGrhz5R2p09E7vfvfdXzj04e9i93y8+voL7pj6W0iY9AQe3PdREkD0i8mc+aXYRPYfdGz4KfgO+VTIyvmyZNj40yDw+7b6CPfp95zwyKqo8WSuwvRbyRD5qrKg9BYOBPX6TQD0CIgY+B0iBPebPvj2HnxW+hpGCPRz7iz7svYS9t+uDvGxW5D3SEfU9dNqfPYcNT75lcYA9poIXvqof071BTYw9QnYXvXJDzz0be8k+RvXGPd8MuT1lTuW9TpmkvRMmCL4zWIi9iL4LvnLhqL0tu9W8zhIAvvmkNb5wRC6+WWhoPce49DsDUgM+L7AFPjpoLr36h6s9+mI4vg8dkj4CAxk+tzHcvLjjFL66lUI9kl5vvl2Ax72Trr89AYUaPLtfe72rY/M99vEEvkfEET3Z6n69Re3YvTZCbT1ZLf6983RzPgGwlb1ssn4+PAcMvqIfmz2yixm+u6krvsyJozx/dK09DBsjviKSFz5zL8y9Pl+GPGByQj0PPZg9th5mvg8tTz6s0Y89ZOdZvXoXA75W11i+HkMuvheBiz0ooS69hNUQvjblhr3XNEg+OE4pvWaelb2p4Cw+EX1sPdFftTuYl5u9ZrVGvlbUFb4Q/3W9j+XgvGNlNj10QI09jUXkPMSy4TyS9gC+geeJvh5Yhb0gQ/S9jxKnvVeSDL2ELh++NSUOvghzTbwZGW08ge+nvTgffz28uOC8g4wCvjPVpjvu8nA+98esvRFEFT72WjA+wsM/PsCX0r3j+4A+oEhuPJ/wAb1T4Ou8uQCaPRtr0TtnJLW8pEwkPvkGub2+hQW+8AjLPfUetD11Bww+1z0JvglrCj6Ay3Y9EpxhPuTHH75met88UR0OvXN9S77lAre9o0MQPp0bcL0n/Li9UEbePQYn/T3gnfw9WCnKvZaa7buk7AM+2vGnvSvUv70DB9Q9C/tHPi93E76QPqa++KM5vguYAb4f+4y8S6idPWgElrxzSbO98QydPDo99r2LL8C71T2kvb6Kqz7zGNE9gcPVvRU3/73lWGC9RYtSvq8Bu710/Ly99EjiPVtrWr01Ycq9YpQrvhicFr6u5Qe8zkrcvCgvET60DqG9WpMHPg+mAz325he6D4iAvqAgJb5Izr09w+syPlFn0zz9NMM99cBQvbUhPr3rt6m93IX5PSSDLz0Vyu+85iIovSZ3jj1nbyU9tADVvW2lWz5LmQM9jbCrOrIXPT79EgM++Cc0vFM2iT0N9Qi+SA6kvUWpkL79NBw+Jv9yvg5orj0+p9S94J36vSy2x7wtZwg9A7OcPdTEYj5DnDc9BZbhPZM2mb1xtrY9fPKcPHsmbb3OkES8fi3+u8S0wzwlg009pEaCvVSjvb1MWr89lShZvstCnr0svEY+ukKtvttrsb1hDrA9uj1TvvZHpj5nqKW+LuE3PvZWRz4Sluo9VOfivBDgNj0rsuW95y/PPbxXD740OQy9MQr/PXqhDr5pgTq9CjWoPLi/K74oChU+8XkuPdr+Qb64YsC7XnzGvbhVqL1gLB08Tq61vTzq9j2AZLS9VlH7PR49s7uoE9s96JSKvUpagb38gxO+bPaTPVoT8D3JoIc+ATAlPoLG/zyoCNi8JQRHPTI6Y7szUzs+UKbxPfo11r2OCLC9GAMvPq68HT1HUu283dkXPrxyRr28Pg+9rR5svRYYe77yP909SMMavtmVkb1jbr69Dhy6PSF1DLyzlfw6ivhWvjISM7x8+Dy+7UgdPR7DOz0qhQ673sKCPj4Zhz3vh5g9EbqRPGBixbxrRvc9TPwMPmyMJr6E+QY+64mDPXHw9T38rm49O0QfviAiFr4vjGk+tD0BPaFoNb5cPjI9RGg5vf30a75xkpK+LyRNvmQoCz1g58S7liP/vFbBET2v45k9e4+Gvn0wGr038tO9VdkdvmIVjL1epHu84F8IvYoyOr5gX3e9aAOBPqf7Br6q8le+d+wMPaC8mD0wl20951IPviaD/z2IC8m9okMRvi/Fm71fnl68ss62PXGznz1kUDi75tLuPQHkJjwzX+U9+bEzvol+Sb6dlcY9Oe4xvrpgGr0Y6ki8sdR5vcYvaL2WQTI+/uShvotF4j0b5JI+aTRBOwhxG7tw87k96BdqPv0RGL53ljM8i6++vJ0zjz3WAaM8B9+oPT3gV718tsg7j5urvfEOqr3S75C8C2uRvPITFr6s90g+fFOKvBsdMb4W/ww+d4+/vboegj0wZwu7xVAAPScgrzwyPpO9S7enOy4egj7vNI++hRQHPOS1Xj3VsAa+kWcvvq4rij69NT69Qg6FPskniT3Y7xs8aLJzPbiPoj3x/hY+QSNfPc8UlDy3hLQ8fwstPtUk0T0+QgC+kriivelXKT3Gd5+96MJAvSW39L0O9gW9ueVYPenC/j1nPZc6WMqEPp9+HLwMYcw+IzYAPmdSfj1WgX+9g8S0vtLanrzbfrY88hJ2PqKbML4W9HM+G6MAvctbuT3YjKK++12OPKb9L72ys649U9Q6POg0Er7IbfI9MNOxPc3FmD0jJAE+gOwMPmOuMru4xy2+ckYxvqbELD7i37U9w/RQPDeKXr0EQoE7Oh1LO6NrLL1M87K9K4SKPp4L6jwDFpu99akmvg/Hub3/P7g9byXCPRKY37yYztM71i8cvZTNDb6onSY+Dso+PZt8nj5glMG9jNWMvFYK4j0d+vq8/p8xvh/p8r0NVk482M0vPXDAQbwzcgA+4iX+PU9DJT1qTFw7GnsBvfwPjT2bbOs9wTz4OytmZj1hDCa9qK00vkYfAL4+CcQ9lN1kPR+MSz53x+U70GHdPZ5YKT5JlP49vMmbvdP+vLwl44Q85GH8vfLVcj0OEgM+nTJ2vah8fD7F2RS9N9TPvF//87yUUbW9gfFVPVENJDvVp1Q+qnibPQWmiT3R2uK8lAU1vo9NN7y8rNm9AKzzPV1jebsQN1U+TD28Pa/l1T1jMew8M67VPOQ8pz0GNOw97+e1vTcMfD3lv6c+aK83vJbWAr22RbG9jWo5vm4tGD7gtvk7ymgZPYgjbD6OlqA+v3fjvcb7Bj5WtJ89X5dMPca/dT0lcDC7Kq9LPqvcnT3jrTE9Iu0fPgsq5j0982w9crsoPQQVYT5DJoM9PTkyvJa22r1Lsi692QAGvrQ3YjxUCQU9BxGDviL8LDuK46Y9x1mtPNiy870RviI+yJixvVLlHL6WAQq+4mvEui9C/D1KgBU+jyfZPOd/GL5Wmae9TlHlvZbEtLwh3WK+g+lmPO+DpT3wNZe8qDtsPYr8772DETq+99GivUQ7FD6v9AM+1XNpvTgxGj6C7iW9M59BPsp6dz0qC2e938LLPUgqxr2KbO+9zqs5vjdlBD1Nvdm7j+0dvCPYUb2bDDg+4eJYvY8xub2cgB8+oOw1PuZ+LT07uV6+qYaZvTnnnD3lMBE78+tGPg73Lr5gqq09QIWgvWxZKT7s1hm8NOwDPnfEpb11ajS+CCEOvqFQm70YLQO+uKgZPmthKz7AzAs9gWAEvl5scrwWnK+9HR86PlnDIT1tl3o9RKNMvX65gL4QacW9zu0OvgqSPT3otkU8cjfNvb/3Rr1Pgkg+gpf1vQz/6r2P0um8o/qyvcaEW70GDYg9hbldPnXGY74tdRW7cbupO5nkK7wEmr+8CUUuvWSJAD6FJm69HF+CvO9fbrelJlw86vauvJXO/z2DMY66BD2yPIvA0rsbYwC+vHjUvaJmBr6rRcU8gae2vY/bB74I0vM8e2iGPTJiYb4zR1g+OTmEO/thV7wXjAg+zPkOPICWmr3oc4w+zYUJvnTtR7zB4dg9JeoIvgv0ULzW60U9l7SZPluO5L3XOMO7CKGoPRv7JTzm9hm+SPZQPSVDXDzGKWQ94tMQPmuwAT47xlA9JwUfPbmaDL7TiYm8/JvhPN9RTb0V50c8K0jTvc9kRD6qu4k+mHJHvcr7TD1zx++8bqUhPuq3Xj0IYR486gflvIcngTwkDAC+s++sPV/Itr0F7og9E7+EPBknDD6LNAu7/fMCPk8f7L2SBJw9j3nlvA/hxjxr8RI8xrDvPVVBgb74aiU9u0s/vvl4Gj7Zgny+7HsAvqxBVr590lE+5/0kvgJMaTy1KYm9nV5mvgOxLL0Eqak91rC8vJ7q8D00Tjm98LxgOlgERb0v6C89iw9zPpl3OT2cG8c8bFCevSpnwb2fZjs+1F0OvqrD6b15lEe8XEVavWdkej5YcJe+dQQ5PTF0tj1VbA++AgOlvQ5/XT3jk1A+xKbrvfQjSr7E8/g9BQpDPkOJK72vro2+stY5Po1Ly7zm2w8+Cxqyu75UQL0aYWe92Zk8PhmcNz6H0oi+aK7vvVJ3Yz7jDTy9/iMuvlJVEjpp71281VxHvESJdb1pwh69vmxpvdD1Kj24D9C9QkwUvRuIk7yFIic+vy8/PYqqYLydQ4k9vO5PPSw+Cz7aqoE93p5lPmkcLD4Y8ae7nDpUvS3v4T3NQYQ9YK1BvL8MPb46i2q+8k4yPetVxT3zrc09C8Ikvq/HBD6Jvoi9MN9GPZJYVT3Ab829FGGXveWshL6Cr+q9s7lmvkbtXz1OkPs7Uf/pPbSMNj17f6K9REExPc3lR71465s9kXghPSMT/b1vHpA59KXiO0qMHb2ZGOU9QEVbPphHPL3AjjO9ROCPvnMDhLxXU1+9wlCKvnG1Ez2kTJc9a+67vQvHPr18a/e99jXDPZs7Qr7JYyC9vLx5Pt9N0zvDlG89gCyWvJZTFr5U0oW7UR1QPezlAr4F6C49NlkfPpXrCD5ml0q+7Kv5vQuNTr6dGwk+iz6cPQUBtD2R2+C9T1UVvs2BHTyF0E48WrDavY6WkTxpAqU9+HzpPGMKBb7bNYe+6osEvadMqDy0KQW9tlBbvY0Csb0NNLc91YbWuxJbfDzGtfi99NOevaO6pzyIsQC+tTAhvnuGKL1puRk+3YjDPCjUOj7grYa848AevdY0Mr50g5O9GrQ3Pqu0Jz3Trbs9S4G0PXpknLqpuNG8hBZ0PHTaqz1xbWo9yON7PfnXnTxkGsW91u8FvRID8b2hmAA+44eGvrgX37wTyJg+nt0uvZ9AEb4tFhO7SQolPh1NpLxtBJ09J7RMPDjpPr1Rnsk+bbcRPCuDib0Y33q9qdpCPfGEUT2OosU9EIiQPEQ/N74KLIg9cTAevbh7Er0C0D2+hNKSvRISur0cW5W7owk6vvl8zzveo348jlQPvnvpn72hiNu9bFnoPRPPob5HyC+9JIxUvg8EXb0CxNg9vm+hvb61jTwpQ9i990B4PjzH6T3PRxA+2QEqvifwDL5/NQo+dAjHvFwOBL2l5So9pKkgvpraxT0jHBY79151PVytq70IY4M9H3O0vUlS9D0/mBA+VnHpPfY2hD3IQaI96i2tvvm61T30Tgy9hXJCPO5BEb3HEDK+4OOJvb2VqD1ebDU+1Xefva1q571Z0zk+EPDhvXS2hD70dM87GCfivY39+z2ov1g+z6U3vhKMRz5XFBC9DEA+PjzMQr134Um+64CAPTk07T1BJIY+2p5cPmL7sT2LafO8bUmFvZb5Fr35t9S9FZIMvYrZor4xKbc8TQltu0k3pD7ZPMI9bd91vW+SkD3n5Ry+BEqavVgNb75a1zc+IeWXPYx5Fr7Twfe7AiTzPd9+fT3RuUM9jJvbvX8io70830I83pXrPZ8w1L0Jig++k28SPvMo7r1v4Ak+YOP4PFGM4T3aR18+QUywPQeqxj0+9+q9sPexva7ZpD2pYkQ+ZzAyPj9ElD4TLR89jKbPPDnLAD7r8Bo7097/uw4QBr6awP09OTcJvnojgz2ApzW+wlQMPvqvA75z7tc9WG9LvpEvYb0G1BY+ISvOvXGbCTzo9HS9tc2Tvuu5HT38UF09e8sNvhvdkj2tssu9T28Avr+TYDo2ca69O7eSPqwHR75oCr09Byn9PcJYfb4Kwl2+2fiPPbaIdr1aYkQ9Z9kRPjaKPr0HMAi+Ka+uvpaC0TzBue29CXQgPWou7Tw+NjG+96dcPjWoCj5QKNk9z5wXvrSaUL2TA4y9fFtUvcPiD74Nil49MrzqPBASOz3thYG9FkAlPkw/wDxyOK++gN6jvd166buZH/c91fcZvTcLAL1Urqm9tGGqPSYqZb23e5q97v29vSB8jj0HcYi9z4NWvm9mnz3EirO9EMk2PcVgPz3LDxo+LLMFPiQ1k724YKq8BywlvtayVj72HGI9UHwyPnhTI70vJYO+KQ9EPnK0PjytYYg8WC3jO10JpT1se4g9tJZLvlMfCz6DaYe97CBvvWMcXT67qes9qCYtvUKebb4+hKU8WeWJPc3vJLw1fh++h2rKvRarIL7pkNw8T8XRPUZAAz5Jc7u9eKrwPIXXjT2s2oK9UhKYvG3thz7EC9I8mQniPZmiXr3aCas7IW9bvjhfTbuQnBg+W1SGPogrGT7L1a89IfHYO5SXmb04HqS80uKcPSH/yL1I4e49B+/7vUS+Y752jAG+MStVvrOoL76/6RA+nvTMvIHT3zwRPRQ+PiohPi4tgb1oDio+/+lEPbYC2jnKWmI973o2vu09yb3JeV28zRWcPdt6Pr3ZX4K83iz4PaSyND7VYsQ9qFsiPkEIT70P5Ry9QP8iPSUmGr0/04G9d3lTPl8Czry0TPe9LIx5PVP7aj5EfyU8oZ0dPpItYL2GjXu9HZiwvTHakrxrDWs+ROcTvguRUT7PFAG+RGzvvG721T0ZWaE9QmYQPW0eU77Adjk92dwCvgJppD4Cjdq8yD/BPBzHEr7GL3W930AlvrtF+z1AIQa9igqQPRxBr73fSoC9GuMkPuTA+L24lWa+tv5PPTUXEr69AWG9h13pPYmP0b0b4uA9ymSuvZDOPj76nCk+vVpxvXtY2ry6+dS9Us3MPAUYEz5ULzm+593qPcJ2Kb6mFty9etNkvm63hj4zcfA7caD6POkVrb1dkgg+c5qGvnZxWjv6Oo0+lZxDvQJ5DDt2F6w9O7vPvcclOzvIA/Y9kw7HPATyPT0R6TK9dpYhPYhq5DuRPzo+63G5PbqH+byTmJy+kTm3PRdZwT17uuq9icp/vrwmEr61Gu09w0oIvuFGa737ruE8F7gcPmK+FLvfl028ZYGMvTu5UD4QcQg+D9BCvBvDMr5qUMq96ViUPcOyuL0AbOQ9GBE5PWfWFT0oSKc96EZ/Pers2r0y0ya9jL+VPgubGr6P93K9ymgIPjEVo7w758+9wl0pviA5iT3WiwI+ti8zPldR3DspwgU+aTcEvssNrDw8aa29zwKyPMYuwD3K7Ag+fmr9vQU9Ij7B4nK9NksDvuCyrrzuNDu+swQWOhpUFD3RLc28F0KJPeAdIb1+vgQ6r2c4vgPJrjuG3dm9Yklmvc/aP7ykj8M88MVSvloeSL55nBq9t+JyPZBxOD1CjeQ9rIkmPoIsfj0ztiK7zwYEvn8x8r34MG+9AfQIPX8I4jw0Dws6VGOcvDRooT0ZVdU8YH8YPXjrHT3b2Yu9fPIDvhp1ez1KXVU9g07hvP/bVL2z0ZE+hlvCveHD3rzY8Ac91L0TvmkZcDylHGY+/BHvPeLXoT1bqZc9f01lPD5Z9T06mp+8GnpYvcD7UDy82+c9iy0pPZaurD0ri4G+G7YYPmvMlT4j3io+FZ8ivZQz2b3LDw49c6r8vZzFuT1NgYa9Du71PXpaLj5qEIK+AOcVPY/Csr2rczS+LwqevTQw4LzdTwQ+eb1CvgeBBj7xJ4E+5vGYPc7Ciz2J6tu6uGcWvnLqiD1An0Q9rEm7PeFnpD7aT7o94vZZPV7tRz4KMCy+FEQSvhEbQL1yqae9nqWxPaiHIr0ntl4+BZ5CPmAjxT23oEW9efCdPZahzz1rhQi+QpMyPeDDtD2pqN08IxpJPrFpGz5eWdO9mfB+PAjl1b3HXZQ9bf3dvSFe7D31ukY9noj4PRCRlLzRZzq+4wZiPs21sLxhNzA+3EBcPYSFrD04NWo+UjMuPcg6Mz5h/j2+awDfPT+x97z0SIm8E8+OOgFsMT3WHVQ+eUZtvnljtDuya7e9ZTkVPnyfWL3E3Wk9nYVLveQFqz0T5QE+A3hLvWkDyTtdzjW+XF0cPWA02z0GL469DGgPPh6xhL6P+Gy+7bExvgY3eL3thRg7vYMhvIFnCbxHPLk9sblxvdi8Ib5qNB++5zWHPhOJlr57j7S8spw6PrN7dz3MXdS9oEKPOcgp3T2fpBo+OjvmvWOtwj3BRwE9I10NPiL5MT68xS+9QYw5vharSj1VaGM+T4KvPc6v6zy7qpk+kR8Fvl0q5z00CJK9X03LOxGXNzyd30E+mp7vvYL7iL3a5Uu+K3J5PVydar0QDFg9xmAJviEBOL2h+wQ+vICyvOMpoD1pQIc9DdM0vcGlR74tQ/w96s2uPD64+z3jz4C+PcpTvnIiib5veOC9nV4FPtrkkD0F5Yu722OGPATDwj10sxq9jclKPUBQjzyC+Iu+SQhFvbrrLT4+rkq9BYaSvJVbm721IXi9ot8PPpFCCb06zwK+lCDHvrKckr2nwHu+oHBpvsqQyz3Da7U9OWd1vo/62T0JMWs99pfIvWMAvD3UNVC+wSoavrhHOL7BRQ6+wPHgPVy0Kr69XRO+f6LzvaUnyDxo7C29R8LcPbkbtr34CyW+hw+BvYrEjju0Ie+9lUgMPUnaZz70lZa9K6WUO2HxKz7XZai9uanbvWCDDb73Q0U9FzWAPV4Zp7yox1k7l+ggPpWC2T0nyjW+4aJxu2JhLDwPrbI941/8vNddq71JTne9f+RmvnSf1bs3wJ+9TG1gPXoSB74Bf269vy4BvpJ7DL4N1ao9ixV/vdz/UT0OtxO+dvT7O6rXXL4W7YO9C16KvSNAiz3K8Y88oS7cvMj7yz1QlZk84Oh9PSJauT09BF+8kC8svSMzET01oWu94c8vPRwICD5cIs89HQFavaEKKr7NvE68y/2uvOiFBz4CKFu9oWwCvacgsD0o5IW9d3rSvH0LVT4xYTg+j+iUPYFl4jwa0gG+T6KCPfT2sDo+SLE8e42Qvb1k8rvpp+y8lwsJPdZfMD5IjyA9Xt9ZvvMDAr6EZ1C++NrWvW6kgj3zezQ9pUClvd153zy+nc29fZU7vnPBOb4lvue9k08vPgRzMb4JoBg+12UjPtsA7Lwdmki8kTipvQS8F7xhdJs9X22nu5zi8T0tHhE+w5YVPZkpDT37CWa8eMkWPUbnFL545TQ9xBCdPKx96b2LJIY+wMYCvnZC673KRuc8oCN+vtKT170rdkm+sC4CvsSKvbyuKgg9mzsGPu5dwD26hRA+L7CIPSpehb1doQc+soGKvTW9qr1nfzw+Qo27PV62qDxwV7I9z6zSPYonNb57/pe8GbwdvsiECTy5nbm9LaQmPhL9bD1Csd29198WvIL3Ib4AtfK69nR7PWRi1Dxf4X2+wg5IvUmfZz2Ppf88BBANPhqZK76PDG89Vve0vcKsjTxGgTI9wTChPe4oor3i64I8CcAcvg7GO75Q5n49go9kvI5zVr7mOOi97O+du6+XPz51lvw9JnK9PdfVa75U7J68onZWPQzOKz02ITc9TSUVvZN2WT71cDU+gK6bvOTTBL5rT38+flucvXOoET481Gw+kzEAvvKT7TxL2E+9mJtpPeUOBj21enE+oRGIPROqCby4lgg+MikpvfX0WL0OfYs+KB/hvfwhjL3hbu+6xsIOvgu3ir5NMf89feDXvbKLmb17rly9VyMFvjr8EL4171A8T6+VPpN1rT2XI7A9OTdIvm/oKbyn/R6+W5q2PaTkEr09hCm7aPCWvDF2pL1TRkq+8EuFPUGQOL6/qx6+7pE2vSHaw71bmc889ZPzPR1wwjx7bo08JhySuwqOzD1I0XO+6sQdPTHo/b1cXSW+l9/duyiBZL2UNoY9FFgFPjqemL5WfYa81h1zPjj/zj38lTE+oEmvO7NEP75dixe+RBmnPdZf5j0+Xcq9o40nvQ10zzydkGe+tWBRvVKWRz7RG4g+5ySrvC/nYj7KeZW9AH7evQMDk76R7OU93p1dveH8kT7zvAs9zBqFPAqsbr7UjDg+MpZXvaxz4Lxp7ZC+RU7ePVZR7j3q36m9RQCRO16bKz3K3ec9UEHCO5k4VT6OORm91r6pvRv7hb08B6a+Yv7cvYVk8z0r19U8MuLfvVSgFj0qvIS+FxUuvTKacD2koqQ9VlPUvS+02z2zVmg+SmJ2vTbMrz2qTE6+UgiBvk8Njz3rkqy6/feVPK3jor1WjzG9UBPCPa81VT4Axgm9fANavml6HD4F/ow9IlihPZyPhTwXbJE+aVdFO7IIbT3E33O+pHChvT0Jvb2nOCa8bhUYPUcRzb1cG1c+NvwOvrx+gL1Qsb883MEmvh4LhT3/+pQ9CAowve3vbT4apno765LrPNiIAb5lAV2+HMKuvXbwPr3yw4G9ss+3PeEZnL67yRe+KXZwvltLJT5C1p29PPiQvT2nE76QWNk9Hg9tvbJVrzwtjYW+VogPPtZhMD1Zd4A9n/EXPl9z+bxAot68ryurPW4mQT0PARe9AMo2uuPxjb2Dk6o9WbjiPWpOtLvGiWo+MHNLvsSsEL3MI1U+oBxxve1lU77kuyw+JxV/PUxXH77Jbbo9uFgJvvYSMr49R828A6GHvTT0Er7JF1S9X/sGvnzpyjpZ9xC8sP6yPXrdgL1v8zC+yl4vvrF8Fr15CD8+JqTNPU2vsL1dqOU91eIavjD59z2Du1y9tTW5PaO5kz0vcCa9GCQQPUD2Dr5wx3e8sQMFPq74AT9Sfqg9uOypOx3yB757/AE+apJavtj42b2MGSA9P6wgvsLIPz4YYAY+F8CdvWhsmr3oOi++5Lo5vjGjSz0zTJQ9XtEcPda34TzKsZu9cWwhPZjqQr6lJJu7i183Prf9Iz7vzoK9cUBDvU4SKz4/tF8+qhhGvharcr0In8E8K6cWPqMK473RTpk9lcgxvSaulT6loEU9RyG5vDuAQ7011QE+QeuiPZLzEL67vbA8tNgxvp7czb0fKCy+TyowvjQTvL06ugO+Ek54PTBHwT0b3BG9HZgVvv84wz2/8oS+4fl9vo5/rz3FLZ09QwbvPV/iBb023Se+TmiOvVtGhj0Kh9C9cvq/vUIAOb7BUhu+5krNPYHAUj1tCBu+CZYQvsD6m73dcYE90u0bvrY227wtuYy+jFQnvglzQT2RZts9Jl0avlpM0r3VtME99HZfvfmXlr0nDnQ9uwicPGs+CT4E08A90VqfvXljp7zeb1W8Kuwzvim5Ar5toe49wZFRvtuO9D0eDPk8wBG7vO2afj1tzl49LNsVPmWuY73KQgu9qi8UvdJmbD6qIeg9FD/4vaLcQL0FBcC9mEhlu4pusTwBoZA+zrZvvnu3/T2Tb0s9YLW+vW73wryYkYm9QwGsOtd0+D0ZAUi+xp8jPi3JU71I/Ts+hPo/PdJ6GT72qoc9PI8GPn5YHzsJ5969PEOjPZQ6rT3vZoQ+i+KCvtz27rwYwQM+7E8lvkiTBr1GqoU+22oxPghl6r2yuDI+K64TPtQKvz3f5DI9XILTPLxU571gnoy91/azPXRGYTwTQWk+atc6vb/dm75A1Dq9mhv+PFUINT0yoZ07O2DavZjzOz6FnrG9HAivPc2sIb2dDR2+LqkxPimRor6vKeG9fypQPco5RL0qt7k94WOAvK0Edb3i24g+OlD6vENwury9vQ2+W43FvVl7oD3CpYo9khMnuwn4uL0TTKo9U91cvhiMOb0Mmwu9vrvdvR3oiDyMy6+9L2LSvXuJZD74gLk9SYYXPpDbkjvLM/M9g1fEPd+XGT4Px5Y+Fc70vBdT/TzFWwC897Xhvi0YNL7Pc5c68+WfPUOalb3UVxA+zWgjPuAZV72mezU+OHxfPh8Baz3ehfy9imc7PvWzq7wRF0O9wV9oPK1Kir3eAwk+2pXGParkGz5ikpQ9N2/LvcZ2o7ziGOA9plpQvdbguj4THvi8nR2WvT8PEz6+a789esRkuyPF67yeXlo9e+XVPTlBwz1+cxq9uyNdPToN2D0W1cM9iYbFvk/o470en8a9Z9rrvHBitzwg4+s9nyCePeD/gbzulD072CphPhjenL0C5hs9R2JIPvocMT32yIK+hPY/PW1TRr2ZoWe8nYcGPspmcD1zMAe9vFrkPcrcXj0pVFc8tx0aPUKYAT0d1i29KQ9rvT4fTjtaSfS9GSMhvkCEJj77cfW8SqBEu/tIirxUvT87UQw6OzZgBTztEM69EpnuPR8tsb3GdwQ+tpt1vg3gB77T+/09o7SXvAjIq73CFkA9ydMFvhFvHTwRxY2+25tnvT9cpr1IJIo9jDLgPaPD2r3O8E0+fo+XvUGUg74lTZi+q/xEPmFGM7xRt6W9Qna/vcDNC77/FS0+4MorvIolZT5cx8u8MWuWvtMs2D0fhDy9fsTyvGqcSD7J2ga9MrwUPj+RI7rYgcC9Yt+BPVPGmb3FOB0+H7v1PaJ6ADw2Ipw9xYmQPbMdDb1RKOU9IL/ovKi/nT3YSfO9O/RQPBEKVT0Y2Mm9qCJUvYjyh73gC7s9YYK3vf8qYj3nrkM+u+Y4PaiuTb40KIY8+/YFPmNkD71O0A4+V/ifPQU/Wz2N/QG9+y2BvXf5/bzIVxI8OSuIPcoGXD3SKRW931YaPJfWSz06mU6+38zBvSiVyb0zpcS8KtIGvbgw+7yXHNy9N56vPbY1FT02flC+62FhO1JRDr5Ex1s+x55hvV/YQb2sXks8gs28vKMgrruPHUg+sB34PI322T3daRI+Sjb1vTpjWj6HkLQ9zXL5PROR2L36u9U9sbpcPVHxhL17QJM+jrqVPZ574rxzb9k8e8DtPR4OEz5rtJk9SjkePvacPj5imRu+Os1uvcCP6733F288Uz47PuE/rD2aUAO+rysMvWg0Bj5o8YK9wBcdvC4eJj2Ll2a+97HMPVqBOT2gqZY9tWr1vXx8v71Yq5O9fYcKPRYIOTw2XZc8V+ZnPmOpKT4T87K9Ni2ivVEsXj6lDBi9Jg0zPgEvTz6quIW9Z3n/vCaZUjy/ANi9iTb1vbMrQ70cad89yxRbvU7LvryT9mO9oiMsvmOPQD6An5S+oFKivVsnlD2eGzC+Tu+fPaDbIj7e+da9xv7pPIyaC77y1oY9djNdPLTA8DxtXjE+3Dd7PQ7GLj4lUac9fBEXvvXFDz03RoI9vY42vmIrLT7L+jI8z11GPceN4L3EPDw8OWsjPVgnHb21rkw8jGuGvmbLMD4EKgy+5nCKvl788L2239C9IwaQPcQd5b2VIRs9Bt3wvQxwjj7nU5A9SL98PnsM/71Qja49Li7wvXiomD37GLI9XttJvr9FD77jHRO+6lM+vqbutr1trvG9SPQ2vlwYaDxLko89kF4mvtTZir3jNDY7PgjfvCbdr73U3dI9kS/cPQxNsT02bMi8tNh/Po5YYD59qke9CQ5evHiXGT63wMm97MZRPbcM6jtMRrG9PUfivJXWR77gZoi9Bx9+vhmOkj4P90E+7XcePm1NHz3b8gA+4O8jPikZAz4kIu09gZDnvZMyXz0cD4e9MEIWvjFJEb6YHF490IUHPo9hLr5BFmA+D7A8PmF9QL164Wq9C1INvJcs/D1pV0K9vjQNvkpVMT00BIS+elSSPCKVFD6GMx09dxHIPcdFfT3ch7o9pDKVPL9B1L1JuuW8SwoWvF4iIT5zJVA+clpXPXK0wL1yzLq9DQHAvB7EMT5ATSs99KTiu9zXw72X4+E9gSgUPWD8z7vQz1M8wt9XPgs6pLxrH1g+MgMfPslj1juOReI91399vHsQ1L1wKgm9nUDovU7ugj3ITfE6UV2RPaOh0z0Xsse+vXwfPVydZr5doao8lZzgvZt6VTwoxy4+JplavpI7wzymnSC8MzRyvhjipT35K4w7rjyCvZrGuL12ms0+HalJvfxwZr5bT+69x7Q7vbrPRL25fSG8hwMGvmiiij1osXe9PiwuvkLK0L0H80S9aT/ZPZITeD18EC29glshOxVQ3Dx6eoI+mRyevaojbz1A87k9X/vzvZHDwTz7Wqc8BYpwvRZNkT2lpQM+UasQPvVqxLwmb8I8OXGWPgREDb7GMeM8VtXjPUu5mTyy7ac9LdSwPKDvwD0HKyQ+ILnivDA/yjyeMeK7VqhOvebVILvI2RC+wpi+Pd/pWT5uLVo+ME8jPubQ9r3Zh0I+JiW3vfRU2btUT2w+UzQJvoZf1z2YAhA9Ob6bvDhE4L1nUlg9KXZtvfLKBT6FtRw+I40wvupYgb1VXiO9VUIXvngXD740mDU8ggzVvMtvU76Vwom989aEPWRmGr4mcey96ThLPouaKD79fU++qewsvkMnQT0Qgxi+DW0BvaQOZ71iZo89vNahvtf1jL7d8xy+wcYBPioJnrz2plq+G2l8PYQqtT1nw/u8FD4pvfcRYD3Uzxo+JBicPAZ5iD2LjMW72TdDvUl66r1GOgM9S7MZvZd7+bzxAe49Stt5Pcy+3j3irkm+FvKOPY4Bl70U6c69hibavQYPGz7j7tM9v4a3vQCcEb6G8uA6AU1rvYdsVD5ACzu+qThqvl3yAr037K869syHPFHgwD2IsYQ+i0cvvchbi721LmG+Uz/5PPt42j0QWAW9ZR4XPoQieDu15kE+fJAqPQpRB76qBqO9y1FEvhNYXr4SqQg9+Z3ePUAlej7v/eG7NYvyvOz0Db6EwPw9K0JHPXxamL2PQ7A9kLSPPZVab74wIb49R2CLPJdvSL2Li1W9pstfPm2aRD53uGk+fwcTvviMp73bzec9EK8avjZfuL3m8Wa+HTJtPhIGCD49wmo9l3vgPD6SVb2btku9nJ2dPRk3tr1JGx0+VDN8va6c371CJSY+JW+TvEoMjj2wclS9rwGQvnsVjD0fYCy+goYKPjSBRr77s26+24IdPQ29WT2Mflo8j1YbvtV24z3peju+3bNtvb3Cyb22XkG90E/aPdtSor3me5A9krOxPVkDW76EUhW+v0ZEvUaVl70fhx09q0B3vqp4uD1gnL49AEesvBEIMb7v9TY6/ZiJvUsPkT338C68FG26PWfcXb2Ypzg+M4GTvgkSAr7ES3s9sWVBvgNmvD14vRu+hN4+PHUt6r2o5WG9ltCyPPd+VrxbPEO9p8yJPj2jijpPT/i9Q3ftPeIW0j3HiBw+4sRkPld48L1pngc+Zd4RPiT/PjgrDPs8li3Avlvukr3722Q+VbdkvjQjib1YbBM9H1iTPWHWUD40pGG+yiuvO3cT3D2kJSi+MZGiu/9AcT5Igyg+kByKPRlNp75idoW869hFPWfwHb31BAa80FbFPqOd27yuOfi9NLL4PPKfIb1Plx69sGAyvJEnxj2rNPM848gZvsfjh7zc6nI9tnlvvZcQEz7f8cY9/6L9vQm8Iz1V7H0+ErRHPnV95rviyeU9TYKsvZlaOb7j5409RHT8PGOfgz3rVUq7y+UmPV9Og73xTnI9xkTVPTw/77vca9A9P65ivvJFyb3U5Tg+gX5hPjBOAD24q1O8rkwivqEmOj3AR8c9RKs9vvcTjz2pOHs9CrlhPcxSEL5Atoo9iLw/vk+KPj6JbYo8i/IUvhAvLD6dthM+rYKmvQsQjT6+hwC+hHggPR5aFz6xUpG+8C8APvOKBLzNnAC7nNYJvoi9KT1qDQ6+BO33vdA9Zb0yGR2+Q09JPnITKr6jOMG9OvohvW8B6jk71so9T3zRPU0QG73zpUS9y3yPO8Rw0j1FjrI9mzCEvfnJg77HJ4k+SZHzPTDRBj17Ti49HYeFvaoiAL7bOiq9R87jvEwQoL3wgzq+0QkgvVyZkz26Yn29r/8zO96GhL6fm9S8UsV5vH7wHL5mYV2+AttSPWBFz70CC3o9cCVXvYaKnz2gdi294thAvk4VMbxBEii9gUmoPcizZr2SQEm9/iDcPaxJFT7sasI9TtYEPryNaD3rNcU9UNXgPZ65Tj3u4gA8NZGRPBvpmT7RGeA6133yvD+AOr1jlIi71xH6POXIEL5Cg32+CisXPSaTTb7HdgQ9uf6PPHKSEz4CyVU+gz88PU7Pjb1+Xxa+ObHKvVy/oztWcIS+LRoaPMeJxbpA+qQ97lIrvX3+UDwhc7y9VZVtvVj5Yr7hNn08JT1GPuSJpjzQTjs9Ikz7vac0Nz7xWsS9D0HNPZ3SWzxOiPW9r3oDPrH5+zroArc89X5nPRgvMLvI5kG9OK5uPVg8T73/1gU8W+2qvW+7Pr4aVay9O4N9vdia8jp2mhc+j0BYvkSugzwykI2+2t4Fvh7Pgb1UMpC+xMltvlm9nTw9QB88BAppvN/Azb004Yk+zB2lvEyz3L3D1VY+ZEOdPe7rPb3XqRg+ZG2gPKGkpD2OcPA8caMDvt6g+D0jT6Q8yTMBvtpOw728kfQ9cB49vU0tvjsoj6c94WiDPNZnQ746LaM9rznwPU/c3T2z804+0oI6Pcbrxj0jbks+SNoUvYdBXj7kCF4+kXjIPeJ6az6xGNo9wHXhvfqVET60HSc9o7NTPVhQnjx/By4+x2eNPfwfsr2bvHg9UbG6PeS/ub1AWF69WiBEvUB6m73ulDI9f0UCPiY5cj5/6xg+sdMCPlpUEj6d6io+NeBAvQ2QsT0Q/CQ9gnOEvFzvaL3kWYG9BDYJvfYMHr7xjoU9/Eczu1IjWTzNaC09fpS5PUt9l73qplm8auNNvikSjr4XYni+i7ZEPsLGab6tw3E9jBU9Pr5gar0+nVA+iXNsPrQB8j3D2Jc+amufPWN9ur2vK4Y9mKVhvWljJr4p3CK+TDuUPgpBib1gKha7jS+ovbaplDyy2Ou8RmNNvQzTGb76hzO+kqW7vS3UGz3CrYU+vncIPjAaaz5xrn89kisUvOqjJ77OhxQ7xTSIvjwmEb3Bm1I+ioYxPUzJEj5n7Tm9jKotvugPa72ApEC9KfwcPuuUfz6A/7e97HwsvaG7e7zS2ia9CjscvkgUbzzQvUU9oBZSPXQ/F76MnDW8S3Jbvmdy8D35Wv69J/79vO8tWL0BYY69SAcEvvetXr7FbWE+o4wRPV3CFj01NIg+95sRvFIUlT0RrNA7AdcbPu9DiD2xtzA9ub3lvBIpHz1V+Rg+AeaCvhpuR7ykoUW9oV8JvajPeL44eMM96yvQvfIzx7yMU3G9kpdRvqnAU73mk2e+iu3ovXOcEL1J42Y7LZk0PBhzVrxj7Io+ydJvPSglGL6qQpS9FNOfvaq8k7y5+5G9TH3SvT1VVz69Jh48LpUbvVk34Lzw37u8bI82Pg8Ngz3uEhQ+8WXFvhFrOD159As+Wn+APtvuAjykUle+gqyfPYNwkL0Y4mC+FGyVvZ2uCz7JXR4+tc7BPd2VAb5vYqM+FBARvlqRqbtZRTS+xE8tPiFOdz3H7uw9DQKDPLUUeLv2v9k8lcdsvgU1BD5l0/M9R8Y0vapFXjvV4S09FSJOPjDscT0V5Co8m4JvvfYdO75d5o29n+9oPCWI1ryK+XI8hu/JPRVWdT27iSM96mKzPY2n7DwxL+g6I9qDPZ1QV75kOiY+txofvrIt4j1WzvQ7muATPmerKTwJc+W9UpQPPtDg7jyeiKs8eY+FPB2EBj5fIN49C58PPXMIQL7uzDS9GrygPGFcbD6Hc189N9aiu9DQHz4Nyu+7yY9NOyF51zwM4Di+uW8BPvqadT119um8oUALvo5ECT2sMjo+ah6WvQjaAL4CU3M9YEZFvgCair7vGUe9DlmivT8m4ryPeH292xhHPVk2qLxFxoq9CidNvcNOsD3hCgI+4zb2PbVBwT3mXc++yKDxvSdBA73OSQc9qYhHvtKRPT7HiDk9QOCPvZIv5Dx37RK9lTyzvczXkD1Ppkm9JAItvhArk73dNd675XYCvos1KT7ioQO+88NoPlG19D1wO+G9X8DEPKxEHz5jg4O8kaMQvl1TszywboM+6I02vkxznj18pxg8b+fXu3gGJr2KwwG901MNPgjZqT0gJ+69NSdQPv1cHb5eHbs9iSoBPZc3Ij76uFk9ThIQPukdujtffgU+tmlUPfAOjj6J85+9lvchPo80iT36Gv48nzR9vaf6hD3+XzO+D+UlvuTgyD12sT2+M0tBPhPSzbyLjSU9q8SYPCotfT0XqNG8s/0VvX0I0rtO5g8+iKwaPuGvLD6Co2E98haAvMpTTb75+bc9M5jqPQSUJ72YDOI9qrguPv6wrjyEBhE+ApxEPTpKVL7U1Eq938cqvXkgmz3racm9knE5vY+74r0w/5s7sfaVPKCTBj5AtN89FSj3PHTWIj31Ib48NxfCPGTTTz63MJq+Xf9JvN+NRz2Hexo+BzUCvsoKWT3JYfA9vJI8veh1ar6SwhC9t9UPvtFhuj2rFMa9SMhtPu7c3zzIb7q9bt1avfTsAb747m49nb5IPrmxjbwQQQA+rX/dvUw4RT24Ypg+HQwqvjebJz7cGSA+PsVmvv27Lb5kKua9z9sFPlorNL3VUTm8nMfIPY9hxzx92ho97YL6vIOvGT5qlLO9sSxgPhUOBr1qw7i9v/W4PZfWhj2VznO+MtwXPb4sI77pJ8G9hYncPVy1yb1C41s9CZkcvSxrgD50lTu7HhcNvsYjBL6je9W9H2fLPOCmCjzPCwU+P3/yPIeAyjxr+Eg9DWL7u/FQOD0Astk9f6fZPasQdb1l1Fm+ZBW+vXCyMT3WHpu+2o1SvQpZgz3OGoC98A0HvoeAaD5xNjk+NVfJvGUjMT4OAS4+cuIIvqthrz5wnuC9W9vQvHS3BL6WDYs8S+sgvn7pzDtUzhE+8RIKPd2l1bwb6Uw+7nLXvf7gAj59NP68k9kJPYHLLDwLwrg8ElwtuWAMu71CiIS90rF7PXt/77uNmg6+IjqovRUxpb1Dzoi6AZnlPKxOizwCA5y9QeL6OwyxKb4U2rW+vmrfupt5Tr59NOi99WEVviOSqj3AKRa+8UUfPRHRaL2eBBq+AXxFvtnxez3urVQ9Z1LNPQvdbT5ogBg9QsccPTy+S7yQroM8Xg0ovR6K373R4IA+ZN1rvi9DCz3ndms9C52qPKk78r3UarW8kFNlvav3B76irZC74ptLvYMZi72JzbA9EL4GvsAaZD3gMZu92FRcPTkVEzw/Kvg8mG36vVdLxr1XONu93RawPEFsvj08lgk+PvqAvfrwJDx3ZE++1hOOvjX+3r2+96u9LG5Hvt9LZL5H94U9qdLPvUwWWL5og5M+EsOiPP1nKb0hUKk91v/FvW+aSD7TuUa+dzApvsAFoLzAh8i9uVIxPqFrT74fgcC9XWzaPJouiT2ELPk9EIwhPX7Wij5xS4C95hCVPAjU0j0hMDG95uAlvZWlfb1R4ay9iWsUvseIlr1QNkq+rAMvPWDtT74EO4E+kNRTPlbbBz4VlAC9bVOgvVbHFj6mJI08drGDPW/Owr18UgI+8mzXvXHQ+jumh2K+Y/Kyvf2mZz3y6X29N0d8vVffvD2Kmni8JBYYPo46nb6ANYQ92PhoPWlPS74E/Su+KOjSPeWWDr5/aq+9HFiLPczJQ73moVg9IaTqvZtx+TxfRAM+1OUKPTE8j75mi5g9b+IlOt179L3exSo+ugxlvkAWaD5R8q69VsxBPudASLywbDC+wdWnO/ulDT0OqHg951QAPqqB8r3VV1893PetPehBJr1kkPy95NEAvvAlsT1awb09PkrhvXmgMb5S4xY+Gf1Mvh+iVDzaZ9u9b8BmviLtCzx5nPq8uFEwPtIvjT5lqPi8nBT3PckJ/D0LnJO9ySXrvb4JRj6st1a9NMgmvJH0ML0vCcG8PDiovcFnsD1+0hg+LtVavYj8Nr40Ojm6yqdEvhxIsb0hlxU+ET+QPmPoIj2H3Q6++l+4PYuqkr4QU7+9sN06Pod4rz3fATe+wApbvqaByz3v0FO8lY+lvd9mNT2gnqC9v/J7vieevz15brO9k/EGvgcGMb7JS8U8SmDbvSyqkD0T5SS9iXkCPrqEYb3m3rS9MwCBvosWE75QJqk9ff2+PkSPJr7PSgu+95oPPaqmVj2psLq9WoQ6O5fYU766HzS94j/XPaEKST6KTuO80VAgvTNISj2/7wU+qwpcPfRHzb30kRk9CXzoPViKw72yHzG+fn9nPY22Hj2hS+g9ExeMO5Xosb0tF3q9t9kJvjfA/r0Zgpy9wqKIvSsnBz7H5SK+xfJLvOpEo73d4DY+ZrDWPFYpWL0yiMI92HAEO9T1hb2LEz0+AV2oPe7kVT5wCw0+CwC5PbftKjzdJhC+6neoPb8STju9CKA9e5jeu8NPu72l4AW+722mPRKnHj5GbSm9wIhQPfViKj7hnd+9h5BDvRH5E74ZcxA+fefePNllgL13Cli+xTHivOIK8z2AuSu9xAhtve11mD04ASK+4Qy4Or/GjT3JedC9SBLdvYRl0zwQko28sBEMvWWuqjznYbo8DDP1vQhNs73clVA9OqYJPjA9Jz5vzeC9QUQGPpZHtz1xWQi83YJlPTySyT2HfF4+6oMKvhG0jz0cXLG8eFv1vNpADT4pGsc9NygFvvPoIL2QBMU84383vnzS0j0GxFq8cb6DPMzFGT2kE2E+36YNOuZsRb3Selg+BTaHvZsRjb1gzTO+vgsFPgtS9DweNF891CqJPLQOqLxBqs69nHjNvQOlSz0WUT48ruZKPs4DyL2u1oK9hfYEvs7fKj6syh++vCG8PUN8Mj636qq8O2OwPfJ1iL4r/1G9xH1VvsrmkTwAWBe71KjJvRQ26D1VLCY9/lSLvVmfiL3VdT2+9/fWvGZohD6QmLq99p1HPSh7kb3yvsQ9d3lRPZQuA73/5WS+/5CIvQaVFD6qbwi9KrOYPZAEgL1nVm++vfRKPd8xFT3XvZi9czpIvZoLBj04Ppy9NYkiPXoA57y8rpa+V66qvPQ3nb3G5tm9p3U/PQuugb3LiII9SlQHPt8Icjwv0Ua+KP2+vQgk4T3wew69NPDRvQE7ZLwTWXM9UrjvPGjPnT1vPta9+P8VvaZyCr3JIK+7ZeqFvhtSAr33Yiy+UzwtPrFFQj4YE1I+4srHPQDyf73HwO091A3fvBPOlT0zQOm9/HiZvZm7YT0z5F0+WFmwu4prjT4OMq0+uoEkvh0Ht7t8Z/W9qpaevIeYi72IoSq8xsfvPTBe6T1MK/Y8dh/fuvXCTjxqLmA8hSONPTBJrbrEgXY9gK8nvsvIxD3sLFs+g06qPBfPNL6qEik+AzsuvQMWvr5HxOu8lKqVPQo2Oz2/QRs+DKeZPZlQYDzb4Xu+GsUOvj35pzzCE6g9z8ADvnpWnr2yVGc9KX9zvvsmeL4VSva8u0PyPEM6eb3qEpK+5o2mOrDhKb4LZ6I9c3VmvP8J/zxbRp89hZWIvf1mzj2p7Bs+OrFCPaXjJj6y56G9F/vkPSYyAj2zGP290Gg3vMpcib11AI+9tq0XPBgKBT536ya9rhxlPD2AO77+20A8JrsQPs5dyj3ExGo9qmGIvRL8+b1CglW8BAorvuHVHb6H+es9HW7rvfUrYj72jza+0UFUPST1Fb7UXKU8hE0FvsaybTshFKq8BcFqvdO1fT1n1D0+k9OYvYFS3T2iIxQ8MfKou6ZEij6HU4q+eY6vvWgCZ74G4CS9Cjj0vOPX8D7/wik9zSdiPnIlIz5MTmW98hZtPfMlUj5r3qM8X/3HPL0PeT36PkC+tv3QvY24JD0wWoc9NQ3svaomKr0SAom8fySmvIq3rD3vST48EGabPHsaNb6ySQe+/ngcPU/6S75o1wE9CkarvSG30b2Ts6A9loKvvYKn3b2OV6+9Nu+pOy1lrT5Hk4e+Tf6TuyJ5A72wUO09oVhFvV8anr4ZACY+Nf4MvsePIrxEbzC+Pc0NvvSPg71tfNQ9YbPQPfutnb2YuXM9MhxJvRZcNDzAHIU8GIiXPcqwor37qZ+8EfDDPCimAzysU9G9T59XPu7zd73U0rk9uuizPEvgFz4Rnoy+kqeAPmZA9bx8MyC+rxRNPEm4jT7qs3I9AEggvrE4er0KISY+HEY2vgR01by72SS9d+mHPmevI72BQSM+jP6zvX0L1L2Suvc9sKSWPfCmX76985o9+rebPVnvo70vlsA8TEXyPP+Ng71jsZy9i6ayvWY0Gr2vCi2+35cXvHEfQr4tKq07oSZuvOLLB75ia9A94vtxPnI9JD6u1zG+R6MdPrx6vDwGHy+8ctufvbgepLs2Lyw+DcGBPRakY7141bK9CMVkvZBijD2oymg+oLMKvnlIk7vdFlW9UP7HvcK8OD1UR4M9k104vlniB76DTBM+u5wPPdtldz3xCYi9055SvWJaVz2n8Ia9pzQRvk5Wi7vZ6Nw98R8Hvv21AT7vRak9srHjvYa7XLsy8Rq8C/WXPf5BoD3jiym+mUgvvr9E/D3Rix88PBdCPfTYFz22xj0+CVQdvnG4BT7fN9i9VbKvPcKKJT7qjjO+LL86PX70Hb3qoiS940eFOpqPCb7QyPy9q9OdPaNQzT07fJi9MZ08vmVqkD6XygY+2qAkPU62Br7RIpy9haTSPAav+70ZXkY++u5OPBxCNT08ega+JS7uvbUK0L3eePQ8y50XveF2I72h0w0977LAPFv4Nj7Nsum8VTgEvq7Aurs2UjQ+g2aUvV9v5zqgzUW9JOQ6PbB24DxAFdW9bVQEvVWs5D2SswU+zOjfPe/H0D2R7Ti9LXJIvXeE4T0/4he+o7c4vPwDbr6uCFC9nT26vTvnG76VXIk905DBvS3NSb2FjxK9iKvBvaKzLj6HroS9voWkPNx5KL5r1n69K3ozvVQcK71qS5u9+qtdPMTUPz5JnKa8ATStvJjdVL2sWp0+6rJGPifOgz3t3Kg9/bK6vZlpurwqCrM8ghwvPCNe370gDcy9t+VyPTrbDD2RY4a+fVHyO1WuGz4GFqq9ilnRPMioOr5UI8k9BvUPvqohIb59Ci+92s+SPqNKob2NaiK+zBdYPU+wxjw5NUw+lScjvmEATL5l+y29MHAuPey3Iz14QgQ+k2M/vuXe1r1NP6O8kf3KPYxxXz0VIGO9BAAEvsfG1T2QouY97FSoPg1A0bxB7kc+s54bvnATkL39jrG97vN3vdF0470p/I+9u2EqvCcOcb3AAJ497r1kvCaaf7twDTU+teoOPT/eeTxoFca7aDuCO7lFiD2ot9C9/NMLPmVTQT6m6gw+i9mCvUSCS76XMmq9QW14PHAuyD3AAtW8gi8nveP5Oj6ne6+9NeMBPuJ+2z3qfiq+pU/5PO80k72jVPW9yb9rvvE0SL54/UA9MLZRveEg9DxmAwm+8LYvvZcnF71TcUW+Ti5UvkjvTT1DFWw82W7xvTmGg7yPs5494eZhPnEV5r0+OJM9YfOCPj4OkjvTRDQ+ZAKkvgj6MT4YvaC7Jxdvvq4ZvD1Ozf89rdsTPr+5Ej6/Su+7qyTDvZxLdr2EkQG8Xck8PZ08gL17Vxc7dZfUPW5VFD0tFY4+EYWFPtfUE75A/ZW9dhcovlPyFb7gpIE9IVoAvnI8B77xkRa9fqjBPU11Qb3LekK9I03fPXY0Xj2bU1Y9bMnmPdHxAr7Rq7o8VdamvRaj+j3qo8U9dQsHvp15JD5Oqxa+O2YPPmZisDxvwuK9E3QQvjYxKL148Ni7SVC6vd0vhj1pBjS+cMSVu/z7arvCXW++h7wMPQ7WIr7ZJJ++yy+ivZVpAr0MNNw9aiGCvd7ONT6KcTE+f+YFPmT2Ij4jViE9ag+UvRfEmz2CWew9kjbSPLP1Cr0QlEm+DNOiPWsRIj1KCyi+VDULPG2Yrj0uEI28Kgm+PU2wtj0aOT6++IgnvWs1ZT1crN89WiYuPk4Idr4P0kO8OQOtPeW4Fj6iP1E++uPzvd3PS721AQm+zPLGPVYoK74itBE+xufkPbrPZj1cJYu+PAmzvdePtT1VAje+tdMIvbHJiLyZMNk9PYX+PE5L9jwhWG69WAlQu1VLp7w9PLA9wAXVvCF2/T3OrFq+9dETPgX8y7wIrgo+dW/SO+kk0D0y6Tg+GDKUvV2wwjvwT8y8klKyPI3dUL5fxM283WEOvQYKz72LoOW8Ii9Hvpm0LD4TpFE9xSJqPtpX5b0gvhe+SyH8PPYiV74//cI8YUW6vQomOr0L0d48JizAOr0nZz60L5c927cnvnMr7z2dwS2+MerQOxwpIr72Udq9VbIhPmXilb1j+qu9KEeXvU9hML0CszE+PMEZvpUPIb49J4k9cHpOvvg9TL3/QAo+nkiXu2c8g70vlL29K+vxvW+ln71+ykA8tgsYPo626T1/xZm98OHDvWbOpD2iK2u+p7d0vYxkO703TBK+TcUDvj7BFz3zTle+Er3zvRyvsL3oj3M7M/ozvpmZAj4LODe9AmgfvU+MU71tk7i9dTsDviykCT6/LpE8kf+rvIED7D1uY8O9cS6PPXgep7tW7fC9p2mvPbgNRb4KjZM9TEzwvfAILD0ujiU+SHZ7PQC7qb3Pwkm8sNRdvcUdHb7c3BS+DVF5u938aD02DGi+RY+WvAscWD224XY7JGwIvmaC8D08eCO+v4COPcMxPz70yYW+8fetPCbS5TxWMY085RTXvcQLSb2l5zq+lPmuO2JtYT05C769PKD/vcvYjb0sJ0m8S+l7u0TBxbzgW0W7EIYwvtV4sb6EVoM9ycYmPiUAPr7nVb+9SkbNPOFZ1z1wooo9WFwUPsXkl7wpEh89dqQdPVIIhb1+lAo+Y9mDPcjp3D0XVHW9o9XpPUmpEL7vshM9Ny+qviMhC74ws589LiaKvVugEjxz/Fe+wWU1PihLeD1M4H68caodPaAn4zx8qSQ+9zpiPLQiRb60GDO9YBIUPvFMaj0Q6IK9aqt+PS1X6jpGTH49zHNTvihl+r10Vo09y6UivdMh+jz8eWg+sB9PvSzQizwZAaW9lPe1vT/vsLxzlUK+0A6KvqgXHj7/us28VbP/PSawIjtkhrw78EmOPQQ0mj3TRSO++GAKPl4mBr5zX0s89XqZPlSyKrstzkM+cJZgveA9gD0fcsi7AU4ePe0j770Z6/69ooPqPOcMUL4PVOy9vjmHPTcXs70VZve9/h0XvrszuTslYWi900DEO7llEL18v1o+f0KGvU6egL70M/s6mXFEvB/S3jsRGVW+CtcAPtq/g7xDOo+8silSvocpOj3Ls6W8wBIcPrfOgL3fsSa+r5NfO3Lv/L2xEx09t48Tvln/5Lz0KyO9S1iGvOI+mb3QJeO97YGfvDF4qb3kVc87s5s5vYgRkr735aG8wEggPn98yTyGwHc9i24wPWqxjb0+PjK+og+wPTrb7D00Pmc9D5ggPUviET1FjH+8g9KrPPZLMLy7X988opUBvijstL3Ur2c9L51ZvSnfm74ZsT87cI2Tvg/eXz6+DJk9AlyNPV+bvL21eRe+lrAZvWcJHLyTXda9IzrsO84okT1kTHc9pf8Lvn4zi750hTi8EwK6vd1fLD1cFD4+aPc9PgIvvDwHOfk9D18+Pi56u7ufrK88wXS6PXiZe7xMDZG9VHLOvbRGJbyUeq69IZytPRQPT72igig+D5QJPop7Ir6hafM9qmpvvfZNHT59tVE9jcl9vAUTkD0Hf5y9e57xPLl9FD15rd68fxMWPcrDA76Q+Wk9+2kdvlg3hT28E0E9Vn2aPQhSmr2JnrQ+1R4SvbPwGzyGN8m9bdklPjiFg72CjeE9nHz2vTj+7TyOZVS9rwzTPYaALL38SuG9OuY9PduHGL7Have9mUysPeWcar6yjao923NevW8M7L0thrc88DuMPdnpmr2FQ9683qe1PeBZqj1idkS8/7rGvTEm8b12A5y9nlSZPWLMgD2HB/s8ZzojPsgtJr1BbUy9GY5OvVxfYj7Fvn2+1JrzPO13RT3nYEA7ov2KPnRWCT5FGbI9mjbhvVnvYD28EEO96AfPOnTvpDyh13a9u+ORPYxyQT5apvM9FRS4POEbbL6jMgA+p17+PfHYz7wNnHC9osmZPYPlx71OW7s96VMEvhke4r1/Jsm4o2Qxvl6K1LqV+Hg95CYgvr+P2z1gaYq92+iAPXCCwTyaYmG92LaAvTSeTr7yGaq9Oeu7vQxLRD5yY/I9YM4lvrJSvj1fI808s9Y6vUIaWj3yK7w9rpeKve5yB71xeJg8hQnuvY4XqzwGJye8zJakvetBy73H/A89atnQPd5UHD11Q869a4ayPaccnzx2BI09KQQLPrNf2b2akYm83Q+QvURT0r2Ht28+TDHgPSj5U76U1ko9wdGFvdUnCT6eeRs8YU2pvAdlhjybvjY92MVWOxQl1Lxa74W8AN1zPYVCB75NYNe5VoxovPhAab2D4a89UoIavnttL71DJsy91R+CPWpjYL1k7LY7LqE3PQYcP77P1Vc9/hezvVVN9LyXt1i8FDPBPStasD24CVM+uLWoPD0nZL0zm3C9jjCcPdGPPz5q4CI9gOGJvQYjAz0QePQ8dJp4OyWhsb2cuJe+VViAvdqy+z0aL8s8uACEvmk+GDqaz1y+cddtPucetjza1w++HL++PWAKu70zPoY91ZglO1sKDb6q+p491xggvo87ID7qc+c7UPn1vT20WL6HL0E+eXstPsxCFr4LzUQ+BNOfPBOW07zHTia8+2MAvT8PKz7nlo883D1cvlc0ej6Y0tI9HCYCvv1oKr3YO9i9JUOyO1yCPD1eveM8HAqPveZRv70afso9V0xAvJKDhj6G+MC9I4C8PYcHuzvXs7W9dtkiPktNbDw8sdW984oYva5B8z1kbxK+Y9QkPhnRoz14LgW9cjwiPt4nUT5PQY89NUKjPKP5XD6E6jI+6OfdvVILxrwjLM68lMZEvSZWM77fI9g9CocgPAdqPTyO0ig+tYOHvQR42rvuaAM9iIJPvYolVbx577c9nKuEui7LHz6OTLS9MNTBPA5kK76uOmO8H8eovRywIz4G87I9pch0PbvdXT6ymS0+w9OsPXAMpr0OAy6+nAllu909K70szJu9q+sLvQ8/R74vmjM+RG0Jvkn2ob0JZIk93EhEvoot3j2tReI9ndgWvVETAr41uWS9EmRfvsGbJz7xktE7Rd+xvXZJ271Oo4o9gak1Pq32Gb7H94q9A6VUvil3oz2jdpc8mqWIPucWbbwZ6lK9rK2rvbyNzj1OL0W+HMK1PYck7zxq6XS9VLTavXuX/z0bnWE+yyhYvdBbgD03SlM+PGWWvZtr9LyTAhS+EXSPvAlNHrwoI0u9O3uzvdw+QL5fWyO+pF3tvVrPmz3Yd3e9qwrPvRuPnz0U1Ig9y3y3vT1pmL1JuaA9s6QxPfxry71oNOo8IhZlu/+hBz6hVtO9bhrXPQCdUj0M2/W9038APsiw3T0p1CC+/79xPgDfC76zSeC9Yn4dvUIavD1lW449nx85vIj2Jj7A90U9cqMqPmJerD4dYL08f6Odvv65Xb2Z2wO+G7Y0PFekPzxPhha+kJMNvo2iAb0/NMG8mhagvnBj7z3hBXQ76E6duqU7Ej0sYfy9IpXIu9MOAD5w7AQ+iyhkPcD7Cb1XG8u97UUjPvHJgT2ykFG9dISGvrPB171BYG++LboaPlMbuzyONLm9X8EJvY6moT4mchc+94Mnvj2SgryLlBm+OzxXvsn3rTzO7JY+WztDPlrNrjvIZjy9k8nJPHWcAT7BLze+knZqvtEMbD6Xqgw9ksJJPkPk7jwvvDk+HM6ZvWeGej27Y0M+MJ4APh32Z72QluE9iLinvYT0M744JoQ9qcAwPnKw1j23CB++gs7bPbfYqz0DzGi9FVydvrOSAD6/k+A9cAJ8PYNvW76p4Ty+a2AAPre2yz3s6no9a6T6vEITSD3SoYm9lsUevQZi3L1OHgM9XLVUvYQh8j1WMLc97rXOvXPDaT5i4Q6+l0ZlPVb5CT6tOiM+OZqMvl4u/z1Ugxs+eXQ3Pjnhjb60pqy9d7FJvNWkY71qKis+0litvSfmHD5eZY89ycY5vr53/b2S02+9ttpFPHH2/T2Yvbq8rIboPWZaSb7LE8O+XIUsvW6zaj1H6ji9RzkBvj46WD3Eanc+PMZTvLjbub2qbti9gaZ7Pmcgpbtmt5w9LikcPvrgCT4jBey9aL70Pa8F2D2cfXo9DTsBPpmvj71rOxi8J1OGvbIgwj20MKe96WJJPfEIDL5V2nm81UA5vcntabzIF4g8EEi8vJy64Lwnf4S+5nkNPiiOn723nvq8XszTvQ3M/z20gOe9VxuBPcbSFj7Wn1I+QBcYPrybnj3EOhm+MjglPpMnGD6Jz9Y9i+vNPc1gIjyA4YK9arAKPvZTIz4BGQS+ZwzrPZj5AD3lUOQ9GDYQPfz+Dj4+DwQ+iQflPYuSLr60C9U9TWP8OysBDr6NsLc96pgsvj3H5z2ovVk+5jF4vZho7j3WZ249HRGqPRC5Kb7B1p89w/ybPNwvwT3YSW47WgAOPp2bFj39aLI9ytYwPs+Q0TzlUAE+KksAPacNiz06qn29rHPLPR3uHj4eINm791rQPb7NZz3YHgi+lMlBPVOwKj6S/WW9pjZdvlfP7jw3YJq9xLZzPm0NhLqTqmQ7ZT2WvV8MDz1XsYW9udzavQn4Ybunf8O9aW8qPpR3Dr7tPJq7FnKkvVA5Kb6Ml1U+LvKBvhhOOz6pAS2+Gjh9PNdxkD74b4O+V+cnvvlJKT7j+tE8wy2AvWjC+zkRNum9VwKfPM8VQD5MAS69kuKvPE6JGz78930+YoWKvewDKT2xK4S936yYvdm1Nr0Sp5W9d5pUvu0fdb4tQq69Vs2oPIPgHD6I83e98KODvK7Lrj3Bt8I9opYdvOObCbu6Ym8+2KcVvbyeY711W0e+M05rPSY/5LwL6HM+wc8VvWKd1D0I+PI9KwtTPjGyH77CrUg+dgDGO+3jCLwabwm9ytYzvYxfGr3o4o++FtqIPfyNRTxEI+W99upeu8Qikj7MbFA9UDYwvYOPWj4LO769HT9svBZ6gb2YO8m8pdq/PWYPmj2k+q29rh48vJ+VcDxb2Dq9J3xfuT2Qq72TEq+9MjAdPI5a+b2iumE9SNWfvP2z3b1QopC9PTNevSIEfryuKpI8AcOvvPlk0L24czY+bX/pPdU1jjzG7/Q9KLEyPT4K4ryIwWg8QcanPrnR/j2NggU+ZsA0vUkJnT0TVo4+8ppjPYg+CT79JCA+o5unPZmZRz6pmAE9ChODPQZnlL31xqU+vCQmPUH1izyMMjA+jxBjvfHTQjvuuLq95vrMO2IbMr1J4Y09D5dBvE45jb1bjQO9PbcyvJCpb71Khe89hL2tPYGHrDyk2A++Iy+HPdbGGr6fpNM8xVAWPG38ir0mc8a9/x+lvYXNgD6qJuu8wA+xvF9C9D3ZPl09qUIGPk5GFL5pLQO+5ZHPPuEl4LrDdgG9Cbq6PLXh+z2RjA++968ZPY2cyLhLIa09yprGPKK+eL3SJc+9I6qUvjyH+D3A6jG+2pA5vdqEUD4x2kC9DKadPQYltbzDFbM9SHHfO02Pbb3n2Ck+M1jrvAqbIb7AmhS9s3+LPVzSBb7Wacg9VUfDPYJQhD5YTJe9q4WpPVo2Sr4szEC9sMGBPA3VVT09+l27EBf8u7w3kL2R/U29IpAjPYoRkD0=", "bias_b64": "nP8xvkrfCL6YYAu+ugUQvfDObL6dvpq8YQrEvWMCtz1a9sM9N5EOPoktnT2axK27+BWwPUkpGj4t24W99f95PWfVi7stdRM+Z2WrvegG97z1aRQ9pXHTPCXhJ74DhRM9iiVCvMVmxLw9cn68smGzPLn/Ob77+B4+WmywvR2EZb6YTga8+j4VPkFrVL3C2R4+TW4fPgCwsL2qbXy+Jvf8vaYv8z1jRqe9gbEavt36CL6tHZc3xBoru0WYsj20jso9s+y+va9qgLzVOui9RJLrO/2k673Az/W9O3BZPopDVDsVuYM9XfOBPpbwoD3hAju8X+GyO9J4mL3aHuA9O0gHvQ==", "corpus": ["Acme Corporation", "Acme Corp", "ACME CORP.", "Zzyzx Widgets LLC", "John Smith", "Jon Smith", "Jonathan Smith", "caf\u00e9", "cafe", "M\u0101ori", "", "x", "a b c d e f g", "The quick brown fox"], "expected_b64": "PYscvp0GNL14XgC+Ff/DPf0JDr4xftS8HF44vhce7j35VnA9F8f4vJSvDD4wToy71wcAPcM85D0DRLs9BFGuPVqVEj5DGiM+WMQcvY7eHr47Oou9s81DvVOY1b0/EWQ++awlPTgD+70+GOI82W6bveu7g76iiTE+GoNFvYWXZ76G8c+9Owx9PXdG0zwdeQs9LZIQPqhKgL12Ic+9baeYvTUmMz4aRDO9Nx4rvuBYmb7HB8K8MYY0PurObz27+x4+xU/PvZ0Cmr3oJVG+AahQPdDROL5tMV++Qr3tPK2+SL0Kq5u8ZaSbvSM93bu13Im9NkTDvFkahr7SWtc9LAYTvuEpN72qvMq9G38VvpxHzT22Qiq9cbqsvKtrhL6ZNuK7qtNePhd1vj1NvfE7QXUwPl3amzyuL5Q9VSCcvex+sD3/cyM+HvXBPZEkj72K/Oa9Q7YTvnuk5T2nX/e9QE41PoP/mb2eq1O95zKMPWR7s71pqlq+XdIVPnLGgryeXoO+ntRZPTJtyD2K8VO7vprvPefuRT7B7wu+vqIPvo0Gj73jaoo9cHZDvZDCH77uMoy+GHxuvAiguj0dpG49tmjSPQN2Br7cHkm9ic8Xvtes97wgFg2+VeCWvmeSXD2Q01a6BjKfvAV8iDx3Mrm9jYMyvS/7tD39A4++Rx2ePWvRwD1v1BK+qiaNvC0SC76Mrm49KNwGO755Pj1Tfka+0B52vWrscD6qtpc7GyZLveTilj0T5oU8DkqwPaCwBL1qdQQ8Vt4FPsCR1j1YB6C84UD5vcILGb46A7g7fOYTvuV8BT6OvOW9W0zIvaZq2D2yN06+1S9kvuA4ED43zyg9JxuJvkwkUbxL6IM9UBJKPTCT2j2qc5c+k/3yvJ4a2r1czB2+0PFUPu8iWT1Ky1S+gSFNvvkFWD2n0Q4+dc8TPhscKz5Yk5m9lDd+uvn0Zb2syK49lZapvR8oDL4MeIw9yTa2vC61mr01ANu8MNbAvXmkXr0FVSY9xOmfviTO7D0fyzc9++vWvOmksDwMoV+9m7RhvF3OFr6Hbhs9PYAEvpIJNz1zyEA+GpaVPpIfyz0SrVk+uLe0PV/bCz74FSG+OiASPjeQib3KkWs9Su4CvhxxSjzWACE+U+YCPJm8OL7ffbk7iUUjvloi2LzZJVy81whlvTydBL73iYE928ADPV4fBr41yZ69d/W3PWqVjr7qAW4+jruXPqf53L1DFLO9aCE+vur7Iz5n9BS+6S6Qvd5HuT3rONu9EYsNPXKhx73FN8i9Tlz2vaQTczvJrUO98IqXPMpJbb3Xi8O8W73SO29BC77TpmO9kpuDPg2a/DyheCK80FVNPR9/gb6b5Uq8uQkEPZGTmL0gHAa+/lChvs+F0z1kCU2+4vQiPX7pyL0FSZM90AAOPh6Kzj0/UNi7/Id6vcC46z0GsFA+jkIIPuEHor10bz0+3a4RPimcEb26Z+69AVAjPlt5zT3I4j6+zoOZPVsbLz5UMD09rj8/vVSfhD0CH2y+nvsjvWYFbLz9oU++KhpHvSGSXD2VmRk8WpRBPq+XaD2aiiA7nszyvdHqgr7ApgA+f8Twu0ZRi737yC295NKuvTJZSz4ylRA+RPsUPuTW+bzaO6+9hvIePnui/D2PlCW+ubMSvr3UKj5E3I+9WkepPX36DD7dvCy91dgTPhzKQD2khGY9zzGVPRAfkTvfyda983tRvnx6S74aFQQ+kGKhvrYuaD1AOge+H3PsPCGCFD3XEPU93eX4u4kxIzyurDI+2PW2PUQ96T1oTDi9DOxNPpoD8T2BHjS+PoEJvuJdLT7pdLE9BK3bvXfHsbtLOLo9y2kNPY2R1LyZN6o961tavlq9jT3oJYE9GRxkvnxprL3j/zw+4vdqPZ8gbT7UJCE+jiKMOgOqEb55kSy+AsENPoWNR73NnRW+dHlyvax2372ZwBE+BSlUPkLJFD4Re969+cgzvSFAIz4V6+E9JWvyvMrNwLydiuQ98HawvfEfGryqyCM+mj2ZvRPchD3ZZ7y8WnNCPUbEqbwzSHo9QDEuvi6AOL4x9ym+yg2oPI5il77PU9w9vQ8SvhFZ1L03SAA+Mj/GPV05Ob22qRC9ORhjPn1+2j2zsgQ94THZu7Lsbz4achM+wHqMvRL/Ib5asHI+d6XPPV420rw7XMM9K78APl0rf73UhJm93L8JPltTLr6RhrA83i3sPfDBI77fHDe+oxpBPrM8TTzOpx0+QAnoPVMkAr3HeQq+A/TFvaj+Qj3iP+E8RbNbvvulBr1L5Tm+aKbUPffx2j0YTkU+jZ74va8Kfr0rNhc9KLJ5PaeVvr3c2hG7ivvkPd5uD72wP0q8tjw4Pg1C+71UkZ09EnKqPaQSRTyYI4C8KlP7PaEpTb6DTli+L0/XvRojD74y8D+9QQ2uvURKoru3lSQ+3Wy/PZpZqb0svEe8tHwvvhcyQj7tExA+JtJGvXt+1bxm5aY8VUybPTRE8LwRH6O9p7bKPcBNEL1GIRC+DZcEPpugEr4iaQe9GIMjvjN+s721k/W90AhnPqnoCr2pAHG+2BvmvY0FmTwJLom9ANIpPhfq/zy/nuq9pB3HvSa0NT3zjx4+4NNiPPcIE74mFw2+jDsyPuk8Fj6ZeZU9S9TQPc3JDz0+3ME7d0hkvhTpEL6Sla68fL5VvgbMGj74lJ09uhbMPRrGRz7fT1q9E3DDPYM2KT72FnW+7V4ZPSoHA76+ZS6+Lb+WvghtRL4T67C9+AAAvnvAR73KhaK9oYfWPJWGfz0BpR0+rAemvRAn2L1km8o8uUk1Ps9fvb1FHKI9KpCVPYLmUD5z0Fs9WgMivSdTXb1vW2S8W1OdvW1xvD3FDeG7dAdVvWV8or1mq0c8akLKvYhMsz0eFz++Qq00voyq5r2TRF686ySjvXleaD1BO6w9n5QVvBsFgrzqy1O7ZjT7PUy0xjyLYIa9fL+VvcyZaj572Is93a/PPZL0JD6CLdm8CtCIveRYsL51Siu9PBtPvdE/SL7c5vY9fkq8PXDFfD6MWYo+9VUIvRFRZz0hxE8+2/41vhhIQz00ANG9Pr9+vpx0xb1m9eS9uq6EvCV7XD0qPhc92IsMvvMLxryXWQa+7OnDPaMeej59ihu+nA1XPvizRT4lts29RpGtPTsUzL0RLVO8WQZGvJV8UzwWowW+GpF0uz3wGb4c6aY8A73uvbdxJD77zzu9Rbc2PIwvtLyIw+k9Dlb1vFlSPL71ea+9cV4BPgXDDL62MBW9m7uAPRBrEL7CXJi+Kebmvc/L7T3RvNa9TjD9vfCkwb3Wad09HWPRPem4tz33b1K8HhQ0vjc/iTwEQ4u+TobOvVGNWr6sLKU4tXN1PVQsZT0/cIM9uxlPPiCyOz6YgrM9zLf6Panc1r3POQQ+OfOmO+ziRb5DKhi+OPMavjcdIL0zooO+ygisvMDx2b0Gdcs9fNvZPRV/Hj5Qva496C7Bu5LCwz3HYis+4c+UvV73ij0UdZu77e4jPt6Lvr1TUAm9D/8kPZoR6zwFozq+iAAkPb3WV7x3WNq8GXCNvJJsxzzfx06+GLwwPpsixL39KH++MVAVvOHrJT4ZJ2y9YpkwPoU+MT7QbcS99FCMvmCdDL7ELQc++fa5vTj6K77rSBi+EACoN+Q4PrujjMY9ejDhPb1B1L3Nw468qhYBvizyAjyU/AK+XaMIvqa7cT7y+ms7xXCSPVt4kD7367I9/OdPvOjdxjv+gam9Zin5PbllFr1Ki9m9KVjbOXCdnT0fwt08QOyRvixCDz2bmZq8jtfvPYIJgL2CzSg+7GoXvSvE0z2yRvU9tmG7PaRQTr6cMkE9KZ5tPRQFSj7VADi8rcruPA0R4z2nNcO9NncFvsaTzL0S4Pa92Y/LvUTZDj2646o9wwmivdhjYz6qp5y7ljnSPUCmbr7eizo9kEKyvvOUJT6cXWU+eaGXO0o3W71SkYi9uZRjPsW2gL2+f1S+5eaavA5dPj4ytaO7ZH2ovfkrPj3VrrC9/6/nPSP30rs2nIm80eemvS4dOL3gbwM+khHtPemohrxTK0g+ZSyrvH2dCL4oTAS+l9I1vq69mzzc/BI+uGQHvi/llTzTQFW93xYmPTUoi74vstm9nx68vTeWuj0IaIU9hOotPgmMpj0Uhb096/S8PUc6tb1JzUe+Rn4CPhOiFL3k5es9OejiPJVDgL0Ht429HAkHPvZqxL2T0xw9dcysPXOCHD4Zn5Y9S5bDPe+2bL5AZZE9Im5XvbpjVL0ugIM9hDmcPvOrM75Q44Q+dgYEPlYPHr41dzm+OjyzvWpXUD68k568Jq4qvZfc0r21zRG9oQL4PbuNQr0GwMY9yBg3PGJskr39fu48boYePQDJSD27m3C+jcpAPvFBir146Xs9diSHPqSBuD3WS8q9BjCTPEvjEr762w09RVMOvlK5Vb3pIEu+Vcgcvj9ljL23lYe+QjOrPUu9wb0xKbi8amRVPuPdND7xwlq9Q3gIPsSNGz4wLFU+TxZBvuWX4j3pZDg85tEoPg3tVz2UqJW9kJOLPOOSkb0N9aS93fLLPaEmpr0VeU45kuUEPjpTZj3VQlK+eGExPr4d1L2/uBi+CUKVu7mGKD5UFli9OZZkPvkqGj4lySy9NceTvUhjIr6QGsO6dbXsPVxHFL74qES8pZmuPRsgRDxDtuE8QhB+PSEFRTypJgo9B8HFvd7jdD2yPZC7O3Gqvjq8XD0hXx+9/x3QPfC2RT5ZX8e9rtykvaVR7r0wXkS+pOgEvhv5eD0="}, {"dim": 32, "use_bias": true, "featurizer": {"n_features": 128, "ngram_min": 2, "ngram_max": 4, "lowercase": true, "boundary": "\u0002", "seed": 0}, "n_features": 128, "weights_b64": 